/**
  ******************************************************************************
  * @file    model_yolo_1_data_params.c
  * @author  AST Embedded Analytics Research Platform
  * @date    Thu Oct 26 22:31:07 2023
  * @brief   AI Tool Automatic Code Generator for Embedded NN computing
  ******************************************************************************
  * Copyright (c) 2023 STMicroelectronics.
  * All rights reserved.
  *
  * This software is licensed under terms that can be found in the LICENSE file
  * in the root directory of this software component.
  * If no LICENSE file comes with this software, it is provided AS-IS.
  ******************************************************************************
  */

#include "model_yolo_1_data_params.h"


/**  Activations Section  ****************************************************/
ai_handle g_model_yolo_1_activations_table[1 + 2] = {
  AI_HANDLE_PTR(AI_MAGIC_MARKER),
  AI_HANDLE_PTR(NULL),
  AI_HANDLE_PTR(AI_MAGIC_MARKER),
};




/**  Weights Section  ********************************************************/
AI_ALIGNED(32)
const ai_u64 s_model_yolo_1_weights_array_u64[136667] = {
  0xbd820247bda737c7U, 0xbd0c46cbbd44ddb4U, 0xbc7e7acfbcb68093U, 0x3adda13dbbee28d3U,
  0x3ca670413c29349cU, 0x3d3a86683d046ec5U, 0x3d9a2bdb3d750854U, 0x3de9a5933dbbbdf0U,
  0x8585777887646657U, 0x6756684775777668U, 0x6848888478787547U, 0x5588767546674555U,
  0x5844775458448556U, 0x7588555767454777U, 0x6666585485564464U, 0x8878556884574676U,
  0x7566686764854888U, 0x7565445766784545U, 0x5765476784784887U, 0x7548745787678876U,
  0x8686566478585576U, 0x7885878776675588U, 0x6885745875757476U, 0x7856657667876475U,
  0x7645674468448678U, 0x4466587684685744U, 0x6888786557658844U, 0x7478867645846775U,
  0x7778858544876644U, 0x8668878666557485U, 0x4567467687476477U, 0x8464467778587567U,
  0x5568555576877475U, 0x6684677644757665U, 0x7668646477568545U, 0x4758567754468678U,
  0x5545765877465887U, 0x5565678656657477U, 0x6758688657658678U, 0x5866574765584487U,
  0x6658885645687856U, 0x4766864678585567U, 0x8887587778466576U, 0x5654785685548547U,
  0x6658475488474865U, 0x5845786488668555U, 0x6448858565667585U, 0x5686667484468477U,
  0x8558757555885758U, 0x8646644756467644U, 0x5887485875845455U, 0x6566767854565676U,
  0x7664777576766746U, 0x6577686785577684U, 0x4565474847878788U, 0x6846455677876785U,
  0x7764444675457787U, 0x8457766575857454U, 0x4684667545685578U, 0x6874478786655447U,
  0x6687768657648448U, 0x6557656774756445U, 0x6478486655846887U, 0x6554867445874864U,
  0x6765568568486757U, 0x6658577556485884U, 0x4756785747476787U, 0x8877678767855778U,
  0x7457657578667588U, 0x7885767656666577U, 0x4745877848878764U, 0x7668474758566787U,
  0x4876655647676458U, 0x8854647687887547U, 0x4658568868546854U, 0x7644665555577764U,
  0x4848747575767675U, 0x6865855675568578U, 0x4666766755886775U, 0x8866866578766747U,
  0x7877574764755464U, 0x6756887776754556U, 0x5864787568557744U, 0x4854648455677587U,
  0x7885474687748657U, 0x7654646758864648U, 0x6846787788485778U, 0x4756676656448558U,
  0x8645887887756586U, 0x7454556448788774U, 0x6588867454657788U, 0x7778747687567878U,
  0x5845865568765785U, 0x4678547877586768U, 0x4887866558678747U, 0x8686576865746688U,
  0x7785466786555658U, 0x6856848446787585U, 0x4664564547858767U, 0x6767867868886877U,
  0x4856648757445877U, 0x7685578574776758U, 0x7555565776664488U, 0x6478568646686777U,
  0x8475854667677557U, 0x7755858548484546U, 0x7846866866845588U, 0x6446667847845658U,
  0x6777545847785657U, 0x6465765565778585U, 0x5874654658884675U, 0x7778665868854448U,
  0x8748566676485687U, 0x7766555685886577U, 0x5647557657764854U, 0x5467576866684664U,
  0x5867774647775676U, 0x5658757758865774U, 0x7757756556475877U, 0x4457646774658856U,
  0x7856868867457846U, 0x6476478647676665U, 0x5778658858856657U, 0x7578678745568775U,
  0x6664877754577545U, 0x6775565887485657U, 0x4868766444748787U, 0x6686874785856557U,
  0x4688654656565668U, 0x4676768447888588U, 0x5865845676787674U, 0x6685665678478765U,
  0x7657655568588468U, 0x7878455888554674U, 0x6586677584664555U, 0x8674566786876777U,
  0x8654784784487777U, 0x5466576574446748U, 0x4678586584876874U, 0x4855576668666548U,
  0x4865544676744858U, 0x6445675887858588U, 0x6767647666674577U, 0x7557778657887784U,
  0x7545554644858446U, 0x8868456768786678U, 0x8567667546745586U, 0x7755645848756566U,
  0x4856576566475776U, 0x6748477457577787U, 0x7557464568584678U, 0x5476885668856456U,
  0x5657765458444645U, 0x6647687867587775U, 0x4666787755878684U, 0x8487448487468878U,
  0x6575485578845764U, 0x5877744775567668U, 0x4657874846587486U, 0x5567447886668574U,
  0x7877467768466557U, 0x6687485776744674U, 0x8865485675866566U, 0x8588657477656486U,
  0x7466785764846678U, 0x6788488546587844U, 0x7647465577674776U, 0x5585478766766665U,
  0x5768785878645457U, 0x5466567668566647U, 0x4668868678848575U, 0x8457574766856765U,
  0x8868568748678874U, 0x4756566775575468U, 0x4685474885487876U, 0x5454758576686787U,
  0x5656465887477886U, 0x5655545575767657U, 0x4587745574655565U, 0x7576565468568867U,
  0x4785666586458686U, 0x7776677867546755U, 0x7755648577868668U, 0x4757887786557665U,
  0x6777775468466878U, 0x7674886567646488U, 0x7775656477748458U, 0x6767868565884657U,
  0x8847867557844667U, 0x8645845585465586U, 0x6767678588555446U, 0x5564845875576684U,
  0x7567685674655444U, 0x5657767475546775U, 0x7648456588455675U, 0x6558864657756746U,
  0x6767777767847658U, 0x5644468488758577U, 0x6754776887687675U, 0x5447548644857885U,
  0x8774447467868778U, 0x7486585646856657U, 0x5865878885458446U, 0x7665858786648545U,
  0x8686846766576658U, 0x6648456664658688U, 0x4688656586566565U, 0x7676886587855574U,
  0x4887648566844747U, 0x7458555645757886U, 0x5854576546877447U, 0x8654785664855468U,
  0x7455657444867547U, 0x4568687547865657U, 0x5585444644466584U, 0x6467455577576586U,
  0x8774446574785686U, 0x6487744475566755U, 0x8858876878674687U, 0x6477778674784768U,
  0x6868644857676557U, 0x5676458865645784U, 0x7757667545464488U, 0x4675546886786747U,
  0x4445567768745657U, 0x8584557776475457U, 0x8567774454758668U, 0x7656766664866677U,
  0x6578687477877575U, 0x7757546466776474U, 0x8478778557848858U, 0x7578686457874657U,
  0x6785755446877456U, 0x6877788645558888U, 0x7754864467474777U, 0x4444785785854774U,
  0x6847557476557854U, 0x7546456748755758U, 0x7486657477884567U, 0x6764866674856588U,
  0x6655788778758686U, 0x7466485646754577U, 0x5645557766485466U, 0x5865878865857645U,
  0x7647877667674844U, 0x8565487745555877U, 0x4856575756557667U, 0x7465757644578855U,
  0x7458885765568778U, 0x6775766565664857U, 0x8658685667685675U, 0x6755575867775467U,
  0x8477787656785767U, 0x5648774488676886U, 0x4778845474785475U, 0x6786668876678878U,
  0x6786476456868674U, 0x8546488746674658U, 0x7786665487446576U, 0x4864758445546547U,
  0x6666667754755758U, 0x7684847846556686U, 0x8477665867466488U, 0x5776644766566564U,
  0x7568665585868475U, 0x4646447556776684U, 0x8646446757788787U, 0x8767786484458586U,
  0x5578667854887655U, 0x7856476666567787U, 0x7856448855566764U, 0x7544766557556875U,
  0x5766576688686776U, 0x6855457464768677U, 0x6474877648454546U, 0x5867775784575656U,
  0x6877767668877784U, 0x6746845445865778U, 0x8846555674575647U, 0x6647857758878568U,
  0x4546564666458655U, 0x7576564885567574U, 0x6557587454454687U, 0x8687777765645785U,
  0x6784858766677665U, 0x6858777486667746U, 0x7847766748767684U, 0x7586776567478686U,
  0x6746556667747465U, 0x4646645886656776U, 0x7668557868588456U, 0x8687447564458858U,
  0x8784745875446756U, 0x5688868778488876U, 0x8467858578687675U, 0x7567865876854546U,
  0x7665545876874877U, 0x8655876866858847U, 0x6475486484587447U, 0x8654688867656758U,
  0x5876867768786565U, 0x7466757547466646U, 0x4777667686766774U, 0x6864875778775787U,
  0x8565677786578748U, 0x7585856876666576U, 0x6788476754566686U, 0x7878776446678586U,
  0x8768776878766555U, 0x7866568688876687U, 0x5466644468865456U, 0x7454745568646447U,
  0x8754877777685648U, 0x6864778567487764U, 0x5554866554675775U, 0x4845447777857675U,
  0x6467887666546857U, 0x6488465648846855U, 0x7575785747784558U, 0x6576665548758857U,
  0x7655488675765568U, 0x4664445544685545U, 0x6767575677577555U, 0x4465466674567466U,
  0x4885856478577457U, 0x6587887655665567U, 0x7478485784588745U, 0x4684788566867764U,
  0x5856775556577858U, 0x7457585686488687U, 0x7588777547758776U, 0x8647765755876787U,
  0x6566854856887675U, 0x4457775674767857U, 0x5886654576874875U, 0x4786585476885566U,
  0x8846554677677886U, 0x5564758645656576U, 0x8775858876475745U, 0x5778885465465458U,
  0x7667597687588767U, 0x7578447645757656U, 0x4558758656586568U, 0x8874757755465777U,
  0x8766778766644464U, 0x8784548868676676U, 0x4844647867657784U, 0x5568644574648877U,
  0x5585887858744686U, 0x7555448444548774U, 0x7845446857874888U, 0x7887666667578546U,
  0x8677867655876775U, 0x5455874445674848U, 0x7586765644866887U, 0x6788688486847687U,
  0x5667566788467674U, 0x6644774444868564U, 0x5757876777847465U, 0x6757475568647546U,
  0x5686677675447544U, 0x5666578685665846U, 0x4756786888647656U, 0x7888657777746788U,
  0x8797767785856454U, 0x5787465677664766U, 0x5584686665545578U, 0x6565556678766668U,
  0x8666857858465488U, 0x5764748877675678U, 0x8778575456578485U, 0x5778845656646474U,
  0x5675478776444586U, 0x7646585875754875U, 0x6566788875587656U, 0x5678865485575544U,
  0x5687775654575854U, 0x6484488667558747U, 0x7775886867885875U, 0x7674666756874664U,
  0x5656594877746557U, 0x6855576666466874U, 0x6556776448688478U, 0x4587476647776567U,
  0x5866447647456774U, 0x5458474758864466U, 0x6556745645556545U, 0x7566768785546657U,
  0x4676587567567644U, 0x8645467657755665U, 0x7588656658566756U, 0x5667886664885747U,
  0x5647867785774588U, 0x4587888874558765U, 0x6687448456775754U, 0x8877774465574648U,
  0x7688466557784487U, 0x8446786677488786U, 0x4647586677568677U, 0x6487868554864848U,
  0x6587865688566666U, 0x8757645468684874U, 0x6777676675684665U, 0x4466655578577788U,
  0x6685676656487587U, 0x6465766447747777U, 0x7447764677866777U, 0x8845885777774677U,
  0x5458658644847477U, 0x7845768867455766U, 0x4665666886687557U, 0x8546567558555867U,
  0x6748476666846768U, 0x6755868746484647U, 0x8756687848775544U, 0x7765868774466467U,
  0x7558675667646657U, 0x5675755668668558U, 0x5464667464758856U, 0x6684646675565684U,
  0x6574468447877778U, 0x7655747787846557U, 0x6585866678566457U, 0x7878587645564864U,
  0x4685445784675558U, 0x6677868464685864U, 0x4666685745785754U, 0x6654787846685875U,
  0x8766777764845787U, 0x5565844777665464U, 0x4557546577644666U, 0x6464577446665458U,
  0x8678448668674684U, 0x5585557685446775U, 0x7686585884667477U, 0x8568554775585758U,
  0x5474876474678766U, 0x7548688544546667U, 0x7764645887746586U, 0x4768667755588774U,
  0x5768467685845486U, 0x5744684768675765U, 0x5776567684557866U, 0x7655877485754765U,
  0x5567866878748546U, 0x6757466788777556U, 0x4875845556686546U, 0x4567785855464444U,
  0x5776678746855454U, 0x8456566658888586U, 0x8558767854658668U, 0x6687467455666855U,
  0x8545574574688674U, 0x6857465857848475U, 0x4856855465764668U, 0x8478656448745685U,
  0x4476776778447768U, 0x4558456657764676U, 0x5476764678785568U, 0x7548788576567658U,
  0x4867687478568868U, 0x8658574677875475U, 0x7548657456484866U, 0x6576878574674588U,
  0x5786767574765784U, 0x8866756654458455U, 0x6684665446567755U, 0x8775885688885555U,
  0x5756774565647648U, 0x8866667777667787U, 0x4745487665448447U, 0x6875584777575675U,
  0x8754867476665746U, 0x4676887786886575U, 0x8765767454558448U, 0x5445845876865666U,
  0x5757645747557686U, 0x8586447687787476U, 0x6465474787764586U, 0x5675687746485447U,
  0x7757676748647778U, 0x6867554664757446U, 0x8766758757784684U, 0x6558676468478758U,
  0x7786675766657864U, 0x8886757766777687U, 0x7647587476867785U, 0x5776886545644847U,
  0x7454756768578864U, 0x7564487564778676U, 0x4575788878785646U, 0x6584588856678656U,
  0x5647865654775545U, 0x5646554658744647U, 0x6888456884676875U, 0x6587846446447686U,
  0x4665676478767765U, 0x7868846768877454U, 0x6777568447575877U, 0x5747778674457785U,
  0x7557478468485647U, 0x6778747466884565U, 0x8457857666446848U, 0x6775684667565558U,
  0x6868887585867858U, 0x6484777584848586U, 0x8767585647847465U, 0x4564755548865885U,
  0x7565466658675457U, 0x7667547556687777U, 0x7676647847565748U, 0x8465878768756646U,
  0x7788757555446755U, 0x5565884478457858U, 0x5574546577546568U, 0x6746475485445686U,
  0x5467566585655578U, 0x8686577746456674U, 0x4785658867844686U, 0x6467655667755656U,
  0x7847646776878847U, 0x6678886668488767U, 0x8554884856556565U, 0x6844578574766674U,
  0x7757577767787675U, 0x4755777747476557U, 0x5544455747774758U, 0x5865755456758865U,
  0x4874844785746775U, 0x4655887646547778U, 0x5746788644685488U, 0x8467777568767764U,
  0x8847678757458584U, 0x4864785656765867U, 0x6547758857854466U, 0x8775445658656446U,
  0x4456865846664467U, 0x7678554777447558U, 0x8684465776756755U, 0x8648574875565575U,
  0x8775756647687487U, 0x6768565668878664U, 0x6847446576468445U, 0x7784767647876877U,
  0x8754485658686777U, 0x8846678858685468U, 0x6478744684587677U, 0x7866474874664545U,
  0x6676757455645485U, 0x6788665877858756U, 0x7787545668867587U, 0x6458868887667458U,
  0x4677675856587485U, 0x7556667855674877U, 0x4475768784567876U, 0x7668744466476666U,
  0x5888548666888557U, 0x6754564556775844U, 0x5447776677587675U, 0x4446784884557866U,
  0x7866548847677567U, 0x6657444745675864U, 0x4856865876547557U, 0x7566574755647648U,
  0x4786444476746465U, 0x6766887747554475U, 0x7646658767766566U, 0x4658647867448788U,
  0x8564864646844877U, 0x8574576757757547U, 0x8687685587756667U, 0x5884677547886778U,
  0x6578877447454665U, 0x8858855447465567U, 0x6548654586544476U, 0x6676776677458577U,
  0x8456554447845456U, 0x4665756468866447U, 0x6588547876675876U, 0x5664678685477648U,
  0x6858887885747556U, 0x5547877665788556U, 0x7884884588876645U, 0x6888876474775467U,
  0x7558647648445675U, 0x7586768845768455U, 0x4878566677765756U, 0x7647687586848467U,
  0x5446766767667667U, 0x4646586474556447U, 0x5855476757578444U, 0x8755844876876666U,
  0x6675586778868756U, 0x8876664845564765U, 0x7555646575776758U, 0x8667864457854755U,
  0x6468656567678854U, 0x8875586667856888U, 0x8884456458487477U, 0x7584666477844778U,
  0x7468864756574857U, 0x4767587847846684U, 0x5744555767664786U, 0x8775877444685557U,
  0x8487786858465468U, 0x7845454757466858U, 0x8684667447775687U, 0x4847446785747747U,
  0x4457466565755856U, 0x5557774476558845U, 0x5478778867658548U, 0x7557464545658757U,
  0x6484787478478667U, 0x8855587564768674U, 0x8475776646587574U, 0x6847685765557877U,
  0x7588574566588474U, 0x6747586756774657U, 0x7865677768674486U, 0x8744578567756776U,
  0x7867865856577886U, 0x6584857764768666U, 0x5646577444666575U, 0x6748858675876574U,
  0x6687765565664667U, 0x6465775874465447U, 0x7584786665754885U, 0x5777766687776485U,
  0x5477757466645764U, 0x8847776657484687U, 0x4774768575667646U, 0x5678647485666474U,
  0x5575875877486587U, 0x4456887778587487U, 0x6668658544848574U, 0x5575647886866755U,
  0x7688884548574865U, 0x7874558887848587U, 0x4767476674454754U, 0x6887567587665476U,
  0x5574778578748848U, 0x7474546776875557U, 0x5778654786558845U, 0x8658857755444877U,
  0x4487876547886567U, 0x6655774854656585U, 0x7755786448765785U, 0x8784578757777668U,
  0x6685555577756548U, 0x5548578647687586U, 0x6567754587756577U, 0x8487865655776657U,
  0x7865947767768654U, 0x6745656865777655U, 0x4677476646764758U, 0x5776756675668566U,
  0x8686877858747645U, 0x7448566867688455U, 0x7458848457888566U, 0x8487557646547666U,
  0x4467445647465647U, 0x6646865587475767U, 0x7875675577548765U, 0x4678854775576887U,
  0x4776865668754655U, 0x6867657784644767U, 0x8868856745787778U, 0x5648758785675466U,
  0x5477584888557686U, 0x7674887855578566U, 0x5448575547784886U, 0x8758567786866687U,
  0x8864648857665478U, 0x6468866484777577U, 0x6666747885674668U, 0x7788687486884768U,
  0x8485747478478766U, 0x6556474886866674U, 0x5766765676554864U, 0x8584887657846768U,
  0x4566448688885464U, 0x6684664766477578U, 0x6855877747664476U, 0x7765677667766457U,
  0x5647445556556765U, 0x6587788667848776U, 0x7646455487666758U, 0x7577576687888575U,
  0x7466865747576577U, 0x6666465754745878U, 0x5655764475875477U, 0x6778767858678776U,
  0x8846755464697874U, 0x5647768467647875U, 0x5777467576657477U, 0x6454465685678767U,
  0x7745566665665755U, 0x4587678687456657U, 0x5756474747487586U, 0x9876646678877644U,
  0x5566758668886544U, 0x7774686868856647U, 0x8856484647467577U, 0x5657767756878874U,
  0x4466866886647454U, 0x8886567765878666U, 0x5547455867867554U, 0x8566575787756748U,
  0x4777657667576478U, 0x5757878776446568U, 0x6746886574677464U, 0x5647867446778868U,
  0x5484467775774564U, 0x5476656887575758U, 0x7577544468848468U, 0x7648546876444646U,
  0x7878546455448476U, 0x5855677764877765U, 0x6757754847665664U, 0x8488686775776784U,
  0x8484574777848666U, 0x7757654885758564U, 0x7847487644764654U, 0x7478874464887555U,
  0x4776487755857878U, 0x7586866487854668U, 0x5666677774445578U, 0x7765787664746686U,
  0x6758778448566565U, 0x7487564766778676U, 0x5657866446677666U, 0x5667486768886645U,
  0x6685847544576485U, 0x6486588654876864U, 0x4868476667774866U, 0x7567856547757767U,
  0x5856786675665478U, 0x7865777586658874U, 0x7687565865456568U, 0x5557647847856778U,
  0x5447777578476658U, 0x8674787587755678U, 0x6678466878865865U, 0x6565687778556857U,
  0x7857485854847565U, 0x5586887488874877U, 0x8468478585688685U, 0x8788887746845665U,
  0x4656677777476844U, 0x8765465648757757U, 0x8865566758675787U, 0x5654755564886557U,
  0x5874858857684756U, 0x7467746878585668U, 0x4787777586587888U, 0x6778876744448687U,
  0x7767466554654644U, 0x8466558447775747U, 0x8544654478857876U, 0x4767556786546865U,
  0x7754856864646566U, 0x4486767788788566U, 0x7856547665764767U, 0x8665586648675666U,
  0x6766485677758866U, 0x6856785788754844U, 0x5676647886878654U, 0x7768588575677856U,
  0x8887578555765645U, 0x6757484666755876U, 0x8474644657544587U, 0x4557658868754668U,
  0x5456785664464857U, 0x7678656475654776U, 0x5687774845756656U, 0x6664875458666766U,
  0x5688876568688784U, 0x8748664856777746U, 0x4456547875566478U, 0x8685558754774864U,
  0x6845658886444677U, 0x4847854464558766U, 0x5675775874486577U, 0x8854576677558768U,
  0x5656666455557867U, 0x5768767875657758U, 0x5468855754576485U, 0x5486647876565645U,
  0x7787484566556458U, 0x5746576846678665U, 0x5476588454866664U, 0x7876577567678486U,
  0x8687865764466886U, 0x6547864858775787U, 0x6786457467847745U, 0x4856646867677576U,
  0x6586844487676876U, 0x6855847868787587U, 0x4645757855767784U, 0x5674766754547746U,
  0x7575786885565655U, 0x8566685588766757U, 0x6567486778446684U, 0x5677587867454856U,
  0x4845567847848567U, 0x4756776667868567U, 0x4888868676746474U, 0x4774674757448648U,
  0x5745658586757756U, 0x5467577548646854U, 0x7755664575748465U, 0x6656785845448576U,
  0x6567656856777687U, 0x7768774747776675U, 0x7875754545875788U, 0x5655647478675885U,
  0x4478577757765855U, 0x6468774565545566U, 0x5674685745578784U, 0x6675775884745446U,
  0x7847647865486576U, 0x7488857874688866U, 0x7775558746668864U, 0x6668646784454765U,
  0x7867648657848588U, 0x7876558687586588U, 0x5887657864885878U, 0x6764468675565845U,
  0x4448565765746654U, 0x7886644574586445U, 0x4747886868664676U, 0x4754555678555456U,
  0x5586486565758556U, 0x8777788784556778U, 0x6768844674447645U, 0x5458465585856866U,
  0x8745568857655857U, 0x6474558456645666U, 0x5476784457665446U, 0x7544548887466764U,
  0x8884676585855644U, 0x8865665876845565U, 0x5874748578577866U, 0x8558778765576756U,
  0x6665766478685766U, 0x8446544746558857U, 0x6557668658465445U, 0x5555764466448885U,
  0x6855445554754777U, 0x7686856888668757U, 0x4874465754874448U, 0x5474846676677666U,
  0x7657846766474448U, 0x7675755576545756U, 0x6646856867665674U, 0x7457757677774667U,
  0x7566547576568648U, 0x5754555564645774U, 0x5545647767585447U, 0x4765658564568466U,
  0x6878647586476688U, 0x8856786666578565U, 0x5755744667754447U, 0x8444478658588585U,
  0x6678567778456647U, 0x7577648547674446U, 0x5777748546565568U, 0x4658558845585565U,
  0x5574465666855588U, 0x7676748884754846U, 0x6667766666458788U, 0x6657485647456684U,
  0x4866854547486575U, 0x8744858455457667U, 0x8668544856686774U, 0x5687868674757657U,
  0x6867484857867647U, 0x5786884574886868U, 0x8657547465776466U, 0x6865557785647658U,
  0x4546444764777676U, 0x4556886675647668U, 0x8847555486478478U, 0x8658876547574756U,
  0x8474768456678685U, 0x5564467868466465U, 0x6464577646574884U, 0x4777684645757864U,
  0x8767546578565445U, 0x4477766487767478U, 0x5577588466465858U, 0x8685665566847455U,
  0x8876658784575444U, 0x6664774457685676U, 0x7744777744485555U, 0x5768756586578477U,
  0x7466877864878675U, 0x5785564656585858U, 0x5885647566468876U, 0x4865576466855676U,
  0x6765865867645564U, 0x4844574845567878U, 0x7548877464784546U, 0x7456578754684457U,
  0x7688865555656688U, 0x6864674645888874U, 0x7678578568765786U, 0x6576545775864547U,
  0x7666776688647686U, 0x8567485665465856U, 0x7585546688655675U, 0x7475476567757677U,
  0x7785756647585468U, 0x7847865658454565U, 0x7755476657875688U, 0x7465758788676558U,
  0x7477656477775765U, 0x8767768584886885U, 0x7578755555854746U, 0x6577656676664758U,
  0x4766748645677678U, 0x5746747568767585U, 0x5777776884787758U, 0x4857777648774485U,
  0x7658477888678676U, 0x8454858474747655U, 0x6447546555548678U, 0x6777567644577465U,
  0x6478867756477864U, 0x4767565756456547U, 0x5486456875876778U, 0x5588874868878585U,
  0x4656676558484846U, 0x5858677657687845U, 0x8874864466754685U, 0x4567776757854665U,
  0x6787846455566756U, 0x8445466688446775U, 0x8655677644454857U, 0x5666888675878555U,
  0x6786566564665576U, 0x7577546474848866U, 0x8674454478486576U, 0x7866888864787467U,
  0x7878647464745648U, 0x5857858688556446U, 0x4676746666855867U, 0x4584764576685788U,
  0x6767755578557788U, 0x8467776456874556U, 0x4646745676885778U, 0x6676657478664858U,
  0x7484668677667585U, 0x4587865566678467U, 0x8677576477776457U, 0x5857484655458887U,
  0x6577887678756657U, 0x8776766575486455U, 0x8856778474546765U, 0x5667475687555765U,
  0x5786788845878666U, 0x4554686647848556U, 0x7685865888656488U, 0x8776486467658456U,
  0x5446677668878788U, 0x4754466458578567U, 0x4745856686877446U, 0x7784886588885577U,
  0x6646846756744664U, 0x7768657676848457U, 0x4656667677677566U, 0x8666675676557847U,
  0x8486757457487547U, 0x6655776847687687U, 0x7556458668584866U, 0x6865445746878746U,
  0x5668856765768775U, 0x6875846658786456U, 0x7684577875656588U, 0x4587864457875764U,
  0x5586776787677684U, 0x4785657644686748U, 0x7858685466555477U, 0x4878464578865544U,
  0x5688656676587454U, 0x6857855784864666U, 0x5648657644856466U, 0x5675558856768868U,
  0x7755754475775865U, 0x7465665848588667U, 0x5468554887656664U, 0x6676454675774844U,
  0x8875776668576665U, 0x6775557787466766U, 0x5868766766577656U, 0x6864765885477755U,
  0x6548878478555785U, 0x8575788658757545U, 0x4554487588565464U, 0x6667548885577477U,
  0x7558864548674567U, 0x5665657456646545U, 0x4567458655488867U, 0x5666745567767854U,
  0x6566847574445658U, 0x6846565684748786U, 0x5675584744884685U, 0x5664576546646867U,
  0x7467888586774686U, 0x6677658667864554U, 0x6657854764764577U, 0x6775885547577577U,
  0x7674485447776657U, 0x6884457784776457U, 0x8678754756486886U, 0x8558874746564757U,
  0x5687665445746857U, 0x7768568647575785U, 0x7577485674578755U, 0x8766766745876885U,
  0x5675676665755448U, 0x5466476757878485U, 0x8747564686647667U, 0x7887667565767778U,
  0x8888754565467587U, 0x4877558675865766U, 0x6545867866856875U, 0x5564584856656676U,
  0x4545754767868756U, 0x4465584758885875U, 0x4784888484877555U, 0x6867666848488667U,
  0x7768886858967858U, 0x7987aa98a7777868U, 0x6998977888768899U, 0x76999a998aa979a7U,
  0x6878888868888a79U, 0x6668988879796877U, 0x5765897967687876U, 0x7888467674877757U,
  0x8799879887759677U, 0x8797a9a988799a76U, 0x88a89a7787798969U, 0x897778889a996699U,
  0x8798757768778688U, 0x9777986997667868U, 0x7759786776684578U, 0x7665678487866886U,
  0x8967766678888679U, 0x6868879999978786U, 0x8868999a89886966U, 0x6978977a97997979U,
  0x687757586577969aU, 0x7879698997899787U, 0xa897869885887788U, 0x6476786366676667U,
  0x7947869978996787U, 0x9999978688789676U, 0x9779976888867685U, 0x8986879976678877U,
  0x7657788768848697U, 0x9799788678798577U, 0x9676896955969859U, 0x4786765767559878U,
  0x9685956867a69999U, 0x6869687997869755U, 0x9986786775568855U, 0x8786788877799766U,
  0x7566567546857857U, 0x9767987877685587U, 0x7979887686879999U, 0x6566488588748655U,
  0x5886669767697876U, 0x7888758785586667U, 0x9689988789699778U, 0x8589777957877757U,
  0x6666768986574495U, 0x7989788969768974U, 0x98aa878758999877U, 0x6657667457549586U,
  0x8569798877987978U, 0x5678748685968876U, 0x69a8997887685855U, 0x7678668759779897U,
  0x8798465487757886U, 0xa999979966867587U, 0x957a997868696796U, 0x5887887648647585U,
  0x7889669677777878U, 0x6758675687858876U, 0xa98a978669688846U, 0x5686756667998899U,
  0x8887776445559666U, 0x8978976698797689U, 0xa699677787967a98U, 0x6677455877587567U,
  0x6689a77988969999U, 0x6766688564557988U, 0x96698775886a5848U, 0x9689779889876787U,
  0x6978585766557967U, 0x969a9aa888887947U, 0x97a979789a76886aU, 0x8675648776869888U,
  0x7666977969778977U, 0x7597667879997876U, 0x8786976769895744U, 0x96a8788988989696U,
  0x8876657764868865U, 0x878a778969586875U, 0x98988a9869799778U, 0x8455366656685679U,
  0x5659999788778679U, 0x9577995686999859U, 0x6669596878797574U, 0x7875987987866898U,
  0x6868955566598759U, 0x9889799a78776866U, 0x9987898a98989899U, 0x4555855769969799U,
  0x9768968797776797U, 0x6778699885889767U, 0x9757685566554766U, 0x8588569569675597U,
  0x989a667697876996U, 0xa797896897669979U, 0x77aa867899687699U, 0x7843448468767867U,
  0x76a87a69776578a7U, 0x7768777667666897U, 0x7458488776976454U, 0x6889575766666458U,
  0x9899777689776966U, 0x69997a8976786687U, 0x998a767969787677U, 0x6876445777669999U,
  0x7796988788997797U, 0x9576664755877998U, 0x7747448548575577U, 0x9778578858878666U,
  0xa897889798878655U, 0x9a7aa88988568998U, 0x899a977a9a999798U, 0x4658346488a89a97U,
  0x8679875886789786U, 0x8877796577464664U, 0x8596568754664698U, 0x5788896676658988U,
  0x9899697776596644U, 0x9786a7a987566966U, 0x678879a776996686U, 0x677745987979999aU,
  0x8968999899988785U, 0x8786778658867886U, 0x7869768677677884U, 0x5866575566768684U,
  0x6777985896687846U, 0x8799aa9788887788U, 0x968a777a68987978U, 0x7666378797a89686U,
  0x7698866986766897U, 0x7959785648699878U, 0x7497678856467798U, 0x5575466784486755U,
  0x5787855855777755U, 0x6766797875877988U, 0x7878999986899576U, 0x89645575a8a68799U,
  0x7545846557975668U, 0x9a69786654595556U, 0x5478474584568778U, 0x5566554656654674U,
  0x6996559748757666U, 0x87966869a7a87a79U, 0x788a8a7678888857U, 0x55756698a9798778U,
  0x6746587686855978U, 0x8949787578856666U, 0x4448847568748869U, 0x4583654753463477U,
  0x5897555656777774U, 0x6876879677977987U, 0x97a99a9787776468U, 0x59577785aa787687U,
  0x8587457868856778U, 0x6658486577754475U, 0x8567659567787866U, 0x4775847786757754U,
  0x5658677886798967U, 0x8986789775958a87U, 0x9a87697998987695U, 0x6857567799896796U,
  0x7898868687888977U, 0x9a65878488687685U, 0x6854465884888676U, 0x7676788677457567U,
  0x5758367557989857U, 0x9979996948887768U, 0x9676676876759779U, 0x7876686769897797U,
  0x7996696868a97968U, 0x6657968557566896U, 0x77673543949a8769U, 0x6765876887687638U,
  0x9658767788979778U, 0x9a69a96665896579U, 0xa8687988778787a9U, 0x75956959a8788666U,
  0x8998868789aa796aU, 0x8a99858677987765U, 0x5474437695987766U, 0x5799885855776845U,
  0x8977667778976978U, 0xa97898669598679aU, 0x8789977677688989U, 0x78579978a7888959U,
  0x9898668967888677U, 0x9796899877787778U, 0x2332657697768889U, 0x7587695688677636U,
  0x998998a896a98777U, 0x7967776557688779U, 0x9598596666576869U, 0x8869768976898666U,
  0x9868958898797aa9U, 0x9877799599a87a98U, 0x6443535477a97678U, 0x7976977648773457U,
  0x9798595887976978U, 0x8876747655658898U, 0x8968667644755577U, 0x5876868784876788U,
  0x8689758889999987U, 0x889a868688aa8979U, 0x3335367876678787U, 0x7576865566467545U,
  0x9a56466876988977U, 0x7688868684658989U, 0x7678698687567675U, 0x6688676479775569U,
  0x89596875a98688aaU, 0xa79897789a97b797U, 0x5447886848889865U, 0x9588569988686837U,
  0x9876776768786979U, 0x69777788445798b8U, 0x8569658885856799U, 0x6885847676886675U,
  0x9767696767979a78U, 0xa99a8a9a99988979U, 0x8357648595777996U, 0x75569877a8775646U,
  0x7984587468776568U, 0x8867668755577786U, 0x5889789875557969U, 0x8566676677888967U,
  0xaa69896575888789U, 0x99a89897a7889978U, 0x8867584758795789U, 0x7576966969789775U,
  0x8767545466646855U, 0x6987686855786867U, 0x8675558777949875U, 0x4845848687577755U,
  0x79895666799989a9U, 0xa7a88a97a8887986U, 0x8787676666876898U, 0x7858986998896664U,
  0x6988567467555885U, 0x8666688756644578U, 0x76789a9897787558U, 0x7988585755568556U,
  0x789967597689aa8aU, 0x8a89a99a896aa98aU, 0x88977655568897a8U, 0x7697759656866559U,
  0x9587786684678567U, 0x7758858474746484U, 0x958969789686a769U, 0x8757685756475736U,
  0xa9a777878998787aU, 0x8a9aa9879aaa89a8U, 0x74796777686688a9U, 0x4489689876995675U,
  0x8667645546447558U, 0x9586475875687577U, 0x7587868656989967U, 0x6856747654768873U,
  0x9999687765786a86U, 0x9a9b9a8888a8989aU, 0x966a868985477896U, 0x8858889897765587U,
  0x6855844674475958U, 0x6877866688856577U, 0xa7778a8977865989U, 0x8957778988556545U,
  0x7978689786897899U, 0xb8aa89799a9b9998U, 0x6776986776899889U, 0x77845766887558a9U,
  0x4358467644449874U, 0x8969857788765446U, 0xa8aa79668aa96685U, 0x8676886564777768U,
  0x8989a79987779a98U, 0xa98b9a78b98a8aaaU, 0x6868a75756786898U, 0x8756786868665889U,
  0x6776463747665768U, 0x9a98876677546468U, 0x997aab79877a758aU, 0x9789694676557587U,
  0xa8a978a77999a77aU, 0xba9b9aa7a9a98a7aU, 0x69967785756779b7U, 0x5578766886998689U,
  0x4867555736578565U, 0x6a86788688886657U, 0x978aaa9b9a679886U, 0x7678776847479767U,
  0x9b9b7897878879a7U, 0xaaab7aa9aa9b9aa9U, 0xa79a8987795969a7U, 0x4567985567596596U,
  0x6755445376665656U, 0x7957786565788774U, 0xa9ab9abb78699879U, 0x9898898967466566U,
  0xa89b9a89a89a7987U, 0xaa899a8a999abbbaU, 0xa77987699998a998U, 0x5597866967989a79U,
  0x6755565488887965U, 0x9687895775558786U, 0xa9aaa98b99968855U, 0x689a656899668596U,
  0xaba97a9889a7a989U, 0x65a69896a888aab8U, 0xa989978576857767U, 0x558877689889aa87U,
  0x7875788586868576U, 0x8798588877868577U, 0xa98898ba988a5998U, 0x9879445567879889U,
  0x9999aa788998a988U, 0xa7888977788988b8U, 0x98798a7868777988U, 0x78975798a7a96997U,
  0x7865855744757557U, 0x5574488566788685U, 0xbaaacbbc77887866U, 0x9859788899776969U,
  0xc9abaa9a79a87a76U, 0x699687878b899ab9U, 0x9a9a779578576778U, 0x5456777698799768U,
  0x7567688857885448U, 0x5664466665667865U, 0xbaa8ab998aa76858U, 0x9859677779897977U,
  0xa8ba899999877988U, 0x99a978a888b8b998U, 0x868677966658a798U, 0x4786479586868657U,
  0x4567765676744746U, 0x6666863454778877U, 0x7a98898a98a99979U, 0x7978746788587867U,
  0x999baaaba89a7a98U, 0x9868977aa9979ab9U, 0x778758776756969aU, 0x6584858696788958U,
  0x4858555547477377U, 0x8895657477787859U, 0xa78aaaa98aa98758U, 0x7778448597788788U,
  0x9a9aabaa7aa98888U, 0x9a968a99aa89a988U, 0x766885997989a8a8U, 0x8658868966668746U,
  0x5764546386658466U, 0x8787579579877767U, 0x77997a9b77899755U, 0x6968676658776596U,
  0x9b8a9b8998a87899U, 0x789668778987a8a9U, 0x56748867588789aaU, 0x4598689695457564U,
  0x6654548598857676U, 0x7686889796678665U, 0x89979aab8a777968U, 0x8976556766687888U,
  0xa88ba98978989678U, 0x767a9a987898aabaU, 0x4576677985a9868aU, 0x7699aa7a98895787U,
  0x3547646868586476U, 0x7799877a79588857U, 0xa799a7aaa8799967U, 0x5557876868988676U,
  0xa9aaa8ab898a77a7U, 0x79897979798a8a8aU, 0x865976899979a78aU, 0x9999899a9a986976U,
  0x744654658a777878U, 0x767a98977a786648U, 0x769a88a988886866U, 0x6788976589996957U,
  0x8a9a98a98b87a8aaU, 0x88998789a887a988U, 0x8987869597967878U, 0x99699798a98a6898U,
  0x8676547577969978U, 0x6598799979886847U, 0x8599968779887778U, 0x8769776778777997U,
  0xaa987988a97999a8U, 0x887686a688978799U, 0x78a7799498a988a9U, 0x9879689678897798U,
  0x64668754768688a8U, 0x777787767aa78947U, 0x9888967678888676U, 0x7678796677686589U,
  0x97ab8787a87a9aa8U, 0x9a7a78999a899888U, 0x7966a89789986989U, 0x8aa8887987a89a86U,
  0x6567668666998989U, 0x8987979667aa9659U, 0x767665a697675576U, 0x989a775657889866U,
  0xaa8a8a99a9976897U, 0x876995776698a798U, 0x9779a97879878987U, 0x6799776695aa8a7aU,
  0x8855968866869687U, 0x7678756688a8a947U, 0x5657769997979967U, 0x878a887757759777U,
  0x7a7a9a9798998697U, 0x98698686668799b8U, 0x98689888789867a9U, 0x7788565687668887U,
  0x8996757899997699U, 0x6a77898977898869U, 0x847598766676aaa8U, 0x9798597867586748U,
  0x7899878688878699U, 0x9578656869689789U, 0x6886688999888667U, 0x9a67685776887a69U,
  0xb8a78979a8889a78U, 0x779769958599999aU, 0x77677558587687aaU, 0x8996687797476745U,
  0x7899999787a99898U, 0x8886886a76857767U, 0x9768788877967976U, 0x8969679855787955U,
  0x7aa9668867576959U, 0x9a66567689799998U, 0x785964868878997aU, 0x6886887786688668U,
  0x7a98996877997778U, 0x9778897979888787U, 0x848689a967696989U, 0x9967686666989587U,
  0x7959769677999657U, 0x9a967968779a7899U, 0x7665766779778866U, 0x8698897977588776U,
  0x797879767a665899U, 0x9a8a9a8789899967U, 0x9889858698877776U, 0x89998a6765888586U,
  0x79767987897a9977U, 0x877877966977979aU, 0x8976766696788558U, 0x8889888a98768879U,
  0x9779a999888a7678U, 0x7997996997aa9889U, 0x9898777696967795U, 0x8787a95758787a99U,
  0x97887988897a8777U, 0x7978669889669986U, 0x6889699798aa6678U, 0x7897a79a78795777U,
  0x769977797968a977U, 0x87a6779988968989U, 0x8a88698777798786U, 0x99887979a979997aU,
  0x6679776779a8a776U, 0x7889996787789999U, 0x8886a9679a977788U, 0x8797899869688a88U,
  0x596478799a87879aU, 0x8989879677765975U, 0x9696666898965758U, 0x999887aaa957a99aU,
  0x677789a697a78997U, 0xa9a8867976789785U, 0x7a88777797899987U, 0x478778777699a9aaU,
  0x7587777799a7a676U, 0x8686968986786988U, 0x9999697697664487U, 0x9a899999798886a7U,
  0x799976958a9999aaU, 0x8699676689599956U, 0x7a789a8769987976U, 0x6476956665997888U,
  0x4879869987978779U, 0x6879889896989787U, 0x7aaa979676978865U, 0x8689678678876888U,
  0x7688788867a776a8U, 0x9689667889574694U, 0x9a78695865899867U, 0x8747885995897699U,
  0x7597988786989878U, 0x7968877a87875898U, 0x8aa89a8998986797U, 0x7589aa66769a8a99U,
  0x5897576675668655U, 0x8869887687587998U, 0x988a968569988668U, 0x74677596a8666898U,
  0x5978796779997769U, 0x7998869788968896U, 0x788988899a667885U, 0x5588674796886998U,
  0x9878444685576784U, 0x9796689866977876U, 0x88a78a7687697787U, 0x68668599955887a7U,
  0x4864598976a99869U, 0x7b9897a899879699U, 0x777a8a7888699698U, 0x557868599686987aU,
  0x8876744487577696U, 0x9789988989895785U, 0x9787796768856767U, 0x779896867767a999U,
  0x6a66689789989969U, 0x899677868987aab9U, 0xa977a78a8a67678aU, 0x4957885788768a9aU,
  0x8864565768554786U, 0x7887759679787798U, 0x969a896967955587U, 0x7675867768868867U,
  0x79856676a8887899U, 0x77876689788878a9U, 0xa9a96996779a979aU, 0x766545489699a779U,
  0x9984687476655885U, 0x47669866687697aaU, 0x9589669a76588687U, 0x5585577876965568U,
  0x999878aa979687a7U, 0xaa67997999969877U, 0x888877aa78899779U, 0x478477488677a798U,
  0x7a97848855466769U, 0x57678475746677a7U, 0x6788655666877666U, 0x6787786788775864U,
  0x997879979778aa67U, 0x9899666888987677U, 0x9789a8a888898999U, 0x7545576576877688U,
  0xa959754674767778U, 0x3834646767979678U, 0x7985976878768657U, 0x7968979687576577U,
  0x79a8779989878a79U, 0x8a89978777888697U, 0x78988a9998a99a77U, 0x4566945777869899U,
  0x8698785876848648U, 0x3666587958967667U, 0x6696968777436458U, 0x9899899787758854U,
  0x8779a98778797969U, 0x9a6a9687678a9967U, 0x779787a968ab89a8U, 0x8566657767669896U,
  0x787a797659469665U, 0x6546848964467697U, 0x5588789885786845U, 0x8987787597748786U,
  0x6897887987a779a9U, 0x888987986a6aa798U, 0x887679aaa9a89699U, 0x8546846488987997U,
  0x9796579867478884U, 0x7674777858468797U, 0x6566678848344585U, 0x8769786696676567U,
  0x78787a9789779897U, 0x8968977a68999976U, 0x7999799ab88a9798U, 0x5788746777969a77U,
  0x9a99779a77985757U, 0x6658776675766665U, 0x8858997756456756U, 0x8979879677786556U,
  0x978a879898968998U, 0x769a8a8788975676U, 0x759798a7aa797888U, 0x7855649786759766U,
  0xa7a8896667778978U, 0x5747378887668799U, 0x6676686777674855U, 0x6687875897796999U,
  0x8789896968699889U, 0xa9a7997a978a6667U, 0x867a798a8a8a6a88U, 0x8797788687897897U,
  0x787a998888596888U, 0x4666575796768796U, 0x6768656838776567U, 0x8977565689855895U,
  0x5798a78a98996888U, 0x77a78a99788a6878U, 0x8689a7a9ab899a79U, 0x8776648686878989U,
  0x95a797859877a789U, 0x4575669857885774U, 0x7589565544845686U, 0xa876696979999969U,
  0x859998a776779797U, 0x6678788a99796487U, 0x99a7a9cb998b7889U, 0x8568645886797696U,
  0x877597787877996aU, 0x9886795888666487U, 0x9795666638857879U, 0x899a9a69a6989987U,
  0x78868a989866799aU, 0x9689776698568776U, 0x6797a7bba9988969U, 0x4787794885a88877U,
  0x7788695797787599U, 0x7988568898566686U, 0x5846697487675866U, 0x86899a7975995856U,
  0x958798aa669788a7U, 0xa886477775477658U, 0x7977a799aa7a9796U, 0x9676566575889a89U,
  0x67777676a55696a8U, 0x6788665787857669U, 0x8648685867897899U, 0x8787898996a79a67U,
  0x9698a7899797a97aU, 0x7857776576767797U, 0x86767aa88898a7a9U, 0x7698674764868799U,
  0x78787699b7886786U, 0x6968866589767876U, 0x8966678665959aa9U, 0xaaaa999786a69648U,
  0x7689a886a7a9a689U, 0x6888868465967887U, 0x799689a989a96a77U, 0x765688465787697aU,
  0x6987666878878687U, 0xa989696789768967U, 0x6569586886687868U, 0x99798a8a87877848U,
  0x86679a97777aa98aU, 0x5799669679686876U, 0x56798a8799a98998U, 0x7877747546686887U,
  0x6688766766598496U, 0x9897896898788766U, 0x785879587687a996U, 0x997989a966899847U,
  0x8766889976aa9879U, 0x7779597796999696U, 0x898578789a898796U, 0x8667475668769a89U,
  0x96787787869998a7U, 0x6998969a88557887U, 0x9689678667a58988U, 0x788a998a8a675867U,
  0x875998a989a9a979U, 0x7658766879889667U, 0x7a766899b8878798U, 0x987957844665a988U,
  0x78567695a98aa996U, 0x79a7896a87788965U, 0x9768786868687a8aU, 0x7997977baa575599U,
  0x77768999a9998a9aU, 0x9798976786896768U, 0x79a889a97ba79888U, 0x896968655686a8aaU,
  0x7578899999a98a79U, 0x7a98677679976696U, 0x6978786667996887U, 0x8979888979878877U,
  0x799667889987b897U, 0x87867a7887586895U, 0xaa979799aa886aa9U, 0x8899868764776999U,
  0x8668688968869aa9U, 0x8767867877686869U, 0x8978799789a67899U, 0x97b9898b8a995966U,
  0x79696888989799aaU, 0x7a99798858667897U, 0x967796a6998a9a98U, 0x8a78678845687699U,
  0x68979969969889a9U, 0x667a96856465775aU, 0x8877997799897779U, 0x7a8a988889698958U,
  0x76858799a798ab98U, 0x7798687666875895U, 0x6597a989678a7ba7U, 0x7756657778896978U,
  0x997896776889778aU, 0x797a988865769757U, 0x6687689899898866U, 0xa9a888a766798677U,
  0x87856766a7998878U, 0x7967667898567697U, 0x75859897b79bab77U, 0xa979899884887656U,
  0x76676966669769a9U, 0x8869679977456796U, 0x68679778797899a8U, 0x99a7aa999887a769U,
  0x96868568a96899aaU, 0x6867989656979998U, 0x75889678aa796867U, 0xa88a96a986876967U,
  0x9a887a775899569aU, 0xa958567757565476U, 0x4695998689689677U, 0x9a87a8a966a97856U,
  0x656877999889988aU, 0x8889996798778776U, 0x5685967978967969U, 0x8787879966967985U,
  0x6778796769699887U, 0x8868566666777654U, 0x68987776a9888697U, 0x997888a869a8795aU,
  0x9699758889a79a99U, 0x7896876959967697U, 0x6668a66677899689U, 0x7958859a49866789U,
  0x979777979899a97aU, 0x8785588747758859U, 0x97778878a7a88977U, 0xaa99989989888879U,
  0x78966686689aa88bU, 0x7779898679958897U, 0x8465887888686695U, 0x9a7a77665578a656U,
  0x766688969897a898U, 0x9869688765448468U, 0x89788976698a9a8aU, 0x79aa898998769957U,
  0x7888778886a88aa9U, 0x7595775695888886U, 0x6876685788768666U, 0xa8678a8767775986U,
  0x997779869a8679a9U, 0x9685886688574745U, 0x99998a876988a897U, 0x989a978798967976U,
  0x64767998989aa998U, 0x7578696788676877U, 0x8575487468768557U, 0x7978988757779947U,
  0x466767798a999687U, 0x9889789778565756U, 0x79a97a8a99969a8aU, 0xab7968987a779997U,
  0x9768696997699699U, 0x8679987779767869U, 0x6957868488445698U, 0x6777865756875554U,
  0x688585789a889899U, 0x7899a988a7677885U, 0x7999789979897889U, 0x9a9957a77a8697a9U,
  0x9857866656979779U, 0x7978977978568668U, 0x7656658557768597U, 0x7988995965978784U,
  0x5866669767799878U, 0x787889a969998897U, 0xa798789a86886786U, 0x8876667a8a796688U,
  0x59776857796697a6U, 0x8679998889688876U, 0x8867865847777786U, 0x6667a86636769586U,
  0x987878778a878978U, 0x9968579976998976U, 0x997897777a789a97U, 0x7899877889878886U,
  0x9688866776869978U, 0x8579a99967957669U, 0x8575685768767599U, 0x9796978767957658U,
  0x7a6975979aa87a76U, 0x789687a979779887U, 0x969977a8799a6667U, 0x989888a98687667aU,
  0x69868589978a7959U, 0x99989a8977877888U, 0x7756584764565655U, 0x89a6579747768677U,
  0x9988798797a97987U, 0x868688a969689678U, 0x886769689a888767U, 0xaa9a7888895877a7U,
  0x6966577568666a98U, 0xa7aaa98687987766U, 0x6485496597899964U, 0x7887894776887876U,
  0x7797877869a8a968U, 0xa878778786777669U, 0x667696a887776696U, 0x88aa8a9b68556789U,
  0x6987666697888a95U, 0x76a85a8676796776U, 0x5959778958879785U, 0x9597387567888798U,
  0x6466798697b89886U, 0x5676966878656778U, 0x667976866a968878U, 0x7789987855685598U,
  0x9876687697999699U, 0x6496999787998799U, 0x8a66598486768865U, 0x7878577647887586U,
  0x7566568787b8aa69U, 0x7788967979565747U, 0x7879898866768679U, 0x9a97588997758877U,
  0x88956969676777a6U, 0x9697879886979987U, 0x7865896986669869U, 0x6866688556968856U,
  0x5856856988999a89U, 0x9697986886748667U, 0x9988a96797a89898U, 0xaa98987aaa867899U,
  0x87a99a59979988a9U, 0x889779966678a697U, 0x9a98967565978879U, 0x7768777595655787U,
  0x756995798aaa8868U, 0x8887999979798856U, 0x7866758a98a87897U, 0xaa98688768879987U,
  0x98786799877a9679U, 0x89767979877769a7U, 0x9a7579767597a679U, 0x7779666567997779U,
  0x7858659898996887U, 0xa76a766868769769U, 0xa987998899987878U, 0x9998768887787999U,
  0x99588467777878a9U, 0x578577878976689aU, 0x8987776697978a8aU, 0x6787568876978888U,
  0x5678679989777656U, 0x8989979696568659U, 0x987897979a888886U, 0x887799779875a867U,
  0x99978576878976a9U, 0x57476666886a9799U, 0x99776888789a9959U, 0x8897966486698968U,
  0x67865868a7697857U, 0x9668886878697679U, 0x79966689a9a89a79U, 0x7979655876858868U,
  0x8887656988795668U, 0x6776586876a87898U, 0x69a9567797987657U, 0x6688567467989776U,
  0x86578999979a4458U, 0x8769786678759896U, 0x676767996797a968U, 0x7899675775878666U,
  0x7888559796789577U, 0x6587768999897887U, 0x9779986767986886U, 0x4575368567876976U,
  0x78867569998a6965U, 0x9677677799866567U, 0x696954659877a879U, 0x6976767878aa6769U,
  0x9796889776488688U, 0x9787667856787998U, 0x9899799968a88888U, 0x5448536685668667U,
  0x8897877978998848U, 0x9876687679657697U, 0x8987664988888696U, 0x78876779a6a8aa96U,
  0x8777986985767576U, 0x89987a6996589878U, 0x7998988668998796U, 0x5553436746948999U,
  0x8768678678876567U, 0x9858857677995978U, 0x8678976777997998U, 0x687a975786976777U,
  0x7967879978884966U, 0xa98a767797986677U, 0x99a889a9a9888897U, 0x655767595676997aU,
  0x6889986876598486U, 0x6987699657866969U, 0x79668878b9488689U, 0x76aa766486a87899U,
  0x8657779877a68778U, 0x9769878887667696U, 0xa86789978a7a8987U, 0x6757584689579778U,
  0x5766997796799977U, 0x6746565645678996U, 0x6897a77a96787786U, 0x8887865798756967U,
  0x6669757969688968U, 0xa6789a7778578897U, 0x7769799596798868U, 0x7955847898877678U,
  0x9897599777877758U, 0x7948685846749799U, 0x85968687a6786b86U, 0x9676755699569657U,
  0x9968876696767777U, 0x99a89aa997798698U, 0x7878797789878886U, 0x8775454677749798U,
  0x5668767799855768U, 0xa689676775686997U, 0x6957a88969577897U, 0x98998696888899aaU,
  0x8779967866696678U, 0x7779997897998769U, 0x978a89a896997aaaU, 0x685686788889a878U,
  0x4946576668576684U, 0x8988589859869968U, 0x7677558785878867U, 0x7779968767899697U,
  0x8976677966657679U, 0x98ba7a7789769686U, 0xa8aaa977987997aaU, 0x76648879578777a9U,
  0x6856769986465564U, 0x5988985584897898U, 0x8757776869876769U, 0x7666755986a86979U,
  0x6a99768969586889U, 0x78988a7a96787a9aU, 0x7a698a99789a8999U, 0x648586696899a87aU,
  0x5699a97767757536U, 0x6868899756874697U, 0x7679875579a97996U, 0x6a98766875989987U,
  0x8978675676568988U, 0x7aaaba8a9779869aU, 0xa97aa977a9798a9aU, 0x468679667596999aU,
  0x6485789a68459667U, 0x5856866778997748U, 0x858a6885989a9976U, 0x8869877985787a99U,
  0x7889875677858788U, 0x68a7ba796768a6a7U, 0x9998aa9877798a69U, 0x649677598878aa97U,
  0x4879776689668474U, 0x9979788696755487U, 0x5997897586886779U, 0x9a97a76669997866U,
  0x8897978896798587U, 0x8787866aa6987677U, 0x76687a76689a6687U, 0x7688866998657676U,
  0x6798787675446866U, 0x9689578564596876U, 0x8867679799897767U, 0xa687aa6798787966U,
  0x7999588869795669U, 0x76889897a67a8868U, 0x89a79879787a6698U, 0x8667896846876886U,
  0x7776758855854644U, 0x8766858667757788U, 0x5658457466795876U, 0x6a79668697789989U,
  0x7879899588997996U, 0x7576998976969678U, 0x5877987669896689U, 0x7687675875785668U,
  0x685597a658658844U, 0x6669999576667646U, 0x8985588769878987U, 0xa7a9a88865967896U,
  0x8786978877755575U, 0x8868668878666676U, 0x8776679757776778U, 0x5596968556889896U,
  0x458768a856668867U, 0x7987967575466777U, 0x965747668799a856U, 0xa897787665676998U,
  0x8669888977685689U, 0x7777797877789899U, 0x7757877966866696U, 0x6796657966765787U,
  0x7668485478986978U, 0x6966876558466368U, 0x8768848689589995U, 0xaa77876a66778776U,
  0x8876995969756667U, 0x88aa7697987587a8U, 0x4576769678659866U, 0x5554575667895658U,
  0x6599668865958849U, 0x8996888556787896U, 0x8869765888787766U, 0xaa9baa7768598977U,
  0x9687668687559858U, 0x7985875666784574U, 0x7775777876756667U, 0x8654998987667675U,
  0x5976874867699775U, 0x8996988698576767U, 0x8867575546868877U, 0x97a8688999876676U,
  0x8689774787875685U, 0x8969659748786588U, 0x7787865975887996U, 0x5598788889796676U,
  0x8948697664866888U, 0x8557778876996676U, 0x7778576467877758U, 0x6779899878687969U,
  0x6776678787758857U, 0x7478685788587768U, 0x8678685647468786U, 0x4888467558587767U,
  0x8456845777856547U, 0x8885545764588558U, 0x8686867475876768U, 0x6588675567787457U,
  0x5657448556887568U, 0x8588884848677576U, 0x6554556878666857U, 0x8478647687578878U,
  0x6766578646765756U, 0x6675747485487486U, 0x6467444777586555U, 0x8846886584866477U,
  0x4688856587775857U, 0x4555788677758674U, 0x6657576576658768U, 0x8674664576567776U,
  0x8686457588465845U, 0x7655665576477646U, 0x6678487578557858U, 0x8587776677674688U,
  0x7577778667875458U, 0x6685576767877487U, 0x7687678697458887U, 0x6588868747858586U,
  0x4764787664667766U, 0x8784675646544848U, 0x6747657755666857U, 0x6657778588775456U,
  0x5656778587654787U, 0x8776488847754887U, 0x7665678455657786U, 0x6667875748676654U,
  0x5878554658787557U, 0x4654764576566688U, 0x6874877565457477U, 0x8547578655678846U,
  0x4865855655687575U, 0x8557677765545886U, 0x7774548675665858U, 0x6874875574655645U,
  0x8547776875887454U, 0x8747465746885647U, 0x8665864668787755U, 0x6468586777777655U,
  0x7678558765676465U, 0x6687865877487585U, 0x7557647557955868U, 0x8877895768747756U,
  0x6647874578576787U, 0x5756768454847446U, 0x6744767866667668U, 0x6564568447547565U,
  0x8796686647476787U, 0x6757777468784554U, 0x7868744564547695U, 0x6668895658856684U,
  0x4456568466466766U, 0x7686486874875777U, 0x8766578766657775U, 0x8768664765745568U,
  0x8887666558748566U, 0x7586557758857676U, 0x8775786665845855U, 0x4657474654866867U,
  0x6666787747667565U, 0x5748676675565687U, 0x5744447784647686U, 0x6658774746845586U,
  0x7584478478878768U, 0x5958855674885487U, 0x4584465767655847U, 0x6646664554758854U,
  0x5876484788764555U, 0x6655475678845747U, 0x6446576644884576U, 0x8888685774756746U,
  0x5686586664458557U, 0x4855966897855575U, 0x8546546847746877U, 0x8486688888686655U,
  0x5857867677857878U, 0x5476657557775858U, 0x7786477467676755U, 0x6795674675745674U,
  0x5658886886868567U, 0x5856667888767779U, 0x6567644574796796U, 0x7744785547447768U,
  0x5874657678765566U, 0x6776886565545786U, 0x4478765687887547U, 0x4777768544584777U,
  0x5688888846884454U, 0x8586658896678566U, 0x5686576487689469U, 0x8856788677668587U,
  0x6876778855789748U, 0x8756575875768457U, 0x5454667687756547U, 0x6766666487888486U,
  0x4777588788666658U, 0x6877775766678667U, 0x4685645986574596U, 0x5785584674675857U,
  0x5668858676455565U, 0x7568856765484488U, 0x4584554664685475U, 0x6587566767687664U,
  0x5845578676677684U, 0x8868866576586769U, 0x8775675587875688U, 0x6477474585558655U,
  0x6847566785768785U, 0x4475754846576466U, 0x5587645454684848U, 0x7667976557684756U,
  0x6564775687874675U, 0x6466775778689845U, 0x8887596975577665U, 0x7467767556666855U,
  0x8867456476885676U, 0x7858866588764654U, 0x4778487747648788U, 0x6687786887577576U,
  0x6684846887766876U, 0x5666867485565768U, 0x4875676857866547U, 0x6844656768485564U,
  0x7756765848688764U, 0x5464655775776467U, 0x7587767866854666U, 0x7675855867664884U,
  0x5477496665578876U, 0x8778866568645555U, 0x4546678559895564U, 0x8688576694778665U,
  0x4686465457576757U, 0x7858558847754858U, 0x8666467785487886U, 0x5768744748445557U,
  0x8865856567698668U, 0x8657785878687668U, 0x8677878678555768U, 0x8486665487477876U,
  0x5677575554555666U, 0x5565556584476547U, 0x7776778776487454U, 0x7747778457868574U,
  0x9867587786767848U, 0x5777765767658766U, 0x6445778478687887U, 0x7868858796887458U,
  0x4888578856778584U, 0x7668655667576575U, 0x6586846868874676U, 0x6766884566458576U,
  0x6668465847886878U, 0x5668665879958895U, 0x4958576566678876U, 0x7554864658848855U,
  0x5845877877855757U, 0x6644446688766886U, 0x8777457445677677U, 0x5556786547675445U,
  0x7867648756786668U, 0x4755956687578777U, 0x8669969767856758U, 0x6846566878656898U,
  0x5455874747747547U, 0x6677684666668677U, 0x7648777584755587U, 0x8875874584687777U,
  0x5587855667568776U, 0x6544765455686586U, 0x8868677867788489U, 0x7584574748677878U,
  0x5767486787578658U, 0x7485887558744454U, 0x6687778665667756U, 0x8658648574547444U,
  0x7686877875675548U, 0x4767556886877585U, 0x8976688778668589U, 0x7768677666576869U,
  0x6658846844646556U, 0x7444746868764685U, 0x7764566684587467U, 0x8567564767864445U,
  0x7654555577688656U, 0x7764858846877875U, 0x6977987945748765U, 0x7748767474579857U,
  0x6578854685754575U, 0x4468467567666476U, 0x6744847456785667U, 0x4787566665646745U,
  0x6868647847888877U, 0x6857887646646868U, 0x8969888688854745U, 0x7666768866854865U,
  0x4677688666567476U, 0x8557767546677758U, 0x4858755767578687U, 0x6888666865478767U,
  0x5766687856656676U, 0x8578945774565568U, 0x6677557566878968U, 0x7966564678876578U,
  0x6546577558747558U, 0x7658568558876887U, 0x6845678568644554U, 0x4654467448768778U,
  0x7876566778875878U, 0x8578666774846678U, 0x6765577485876756U, 0x5885475687577785U,
  0x7886777747566864U, 0x6865567886558577U, 0x7784555875876858U, 0x4778584664648856U,
  0x4586566986468588U, 0x8587454768866668U, 0x7878546876555775U, 0x8585558877667665U,
  0x6764775687657867U, 0x8675864448857865U, 0x8874547557776567U, 0x5558668785664576U,
  0x6457586686867588U, 0x7886587488787768U, 0x6787555865678766U, 0x6577946556586755U,
  0x7647876865768868U, 0x5587685578776755U, 0x4847447445654466U, 0x8685667757884868U,
  0x8576769658854865U, 0x6777677655755575U, 0x5687856684566887U, 0x6445557867785768U,
  0x9767558768765864U, 0x7777887577458895U, 0x8774454667556645U, 0x7748855586544778U,
  0x6466457477886477U, 0x7677668865478758U, 0x6577586667858776U, 0x8875888576788798U,
  0x5865874674678876U, 0x6875765755885686U, 0x7676845548448557U, 0x6456656547875888U,
  0x5756855485676785U, 0x7555866655675774U, 0x5545775768685567U, 0x6878766758888668U,
  0x6577567556787847U, 0x6648574748787678U, 0x8445587576678468U, 0x5675776687756465U,
  0x4755464757468748U, 0x7747777685868847U, 0x5566755768886686U, 0x6746658776884858U,
  0x6654787878745888U, 0x6455776685874767U, 0x4754468686468666U, 0x6746777544655857U,
  0x4486687466555676U, 0x7488487578748768U, 0x8877678877674764U, 0x4857966878864555U,
  0x4665864567776486U, 0x6646667486788584U, 0x7677754786855746U, 0x8756886687768674U,
  0x7768686848446446U, 0x8676688475458547U, 0x5575456888748985U, 0x7898658677657478U,
  0x7556655758867767U, 0x4676546654575866U, 0x5755758545775468U, 0x6555858646555577U,
  0x7785678456685485U, 0x4748557675887668U, 0x6574847646684545U, 0x6765697874887888U,
  0x8756565766678977U, 0x5848568644777846U, 0x6466477668877855U, 0x8787557877774445U,
  0x6776465668544677U, 0x7568847444748866U, 0x6568777677658864U, 0x4645656855678577U,
  0x5584855768757787U, 0x7655677668487767U, 0x6586784464486677U, 0x8577558655477468U,
  0x4687664755648556U, 0x4856676576577755U, 0x8867665656866655U, 0x8676976477584886U,
  0x5544885867967788U, 0x8767767776766746U, 0x8476568867548677U, 0x6657467877476774U,
  0x6466547868867485U, 0x8854778876774868U, 0x8758775766857865U, 0x8687785768475677U,
  0x7777885877568555U, 0x7758875677678568U, 0x7576876444755576U, 0x8748646668657455U,
  0x5587886766476787U, 0x7466785564646766U, 0x4547768568876486U, 0x6659678874865754U,
  0x6876867585788688U, 0x5777868655557856U, 0x6468786778458696U, 0x6475657766555645U,
  0x4686466847674768U, 0x5758765745867744U, 0x8768574568678764U, 0x7768577865758875U,
  0x4466676576759998U, 0x5978566878878875U, 0x7664757775467475U, 0x7478575555585864U,
  0x6757776785464564U, 0x6488586768546876U, 0x6585547857756656U, 0x6746878758544887U,
  0x6654885987876879U, 0x7448774585687848U, 0x5877785777575466U, 0x4887848574555854U,
  0x7754764556668666U, 0x8868488866664564U, 0x6587458764558678U, 0x6565545575868558U,
  0x7756745585787855U, 0x5868877644878678U, 0x6476754667754654U, 0x7758785885868574U,
  0x5747458577576478U, 0x7468668787754854U, 0x5968678887667886U, 0x7664785485748765U,
  0x7767777777665994U, 0x5486676558666766U, 0x7455746777557687U, 0x5676566677757557U,
  0x5578747866748588U, 0x5744764765666775U, 0x5777845677885545U, 0x6576688577985596U,
  0x5676775687688797U, 0x4558465654577547U, 0x8588586866865876U, 0x8484875956875547U,
  0x8746885567477655U, 0x6577548588478487U, 0x5958868647885886U, 0x5568576677585868U,
  0x6855778776486477U, 0x4864477478476568U, 0x6754555786786668U, 0x4887858488755447U,
  0x4675576577678655U, 0x8685465577458455U, 0x6587978848785877U, 0x6678777755756567U,
  0x8756558885456788U, 0x7878568667555656U, 0x6488648564684765U, 0x8648656777664678U,
  0x4685746777654668U, 0x6785677665764447U, 0x6686858768856476U, 0x8778787768567748U,
  0x8886486845784647U, 0x6888467648688564U, 0x4887688688568874U, 0x8787877687677876U,
  0x5646558778788457U, 0x8457856568575568U, 0x6556845666855758U, 0x8487774878755485U,
  0x6676768856476477U, 0x7886777664655657U, 0x6588865454888475U, 0x5784448774768567U,
  0x4485766757586875U, 0x7848558666476884U, 0x7658746647458576U, 0x6785465446887585U,
  0x6687644674877878U, 0x5857747477778686U, 0x5546788676975556U, 0x5764446575676757U,
  0x6477756776685655U, 0x6876586658647655U, 0x4587876674567777U, 0x5544886657658884U,
  0x6777646547584867U, 0x8564685584447766U, 0x5677665557787558U, 0x7868657764845767U,
  0x7585566876884677U, 0x5685556875757547U, 0x4875547568567857U, 0x5466767666488757U,
  0x5457767556778568U, 0x7764867646855577U, 0x7677588757867747U, 0x7744876568665647U,
  0x6574755746758658U, 0x6444688686775574U, 0x5778748787765447U, 0x7574874567448786U,
  0x8676784646667456U, 0x6687668887654468U, 0x7847768866767568U, 0x8784885476578688U,
  0x6876646568844588U, 0x5488664464846747U, 0x5686477887766658U, 0x4787677857676667U,
  0x6585868764464757U, 0x8567644675778658U, 0x5457544476784668U, 0x8678455574855685U,
  0x6578845888664445U, 0x6576677778548466U, 0x6888675858666754U, 0x8456586688675658U,
  0x7476677874845587U, 0x8478866557548665U, 0x8887876456765675U, 0x8588577867887554U,
  0x7756647746455777U, 0x5787546846887447U, 0x8564766546788844U, 0x4775587645757487U,
  0x4758676585675487U, 0x8655445766745464U, 0x8877545565887756U, 0x8887875786766865U,
  0x7666865466677484U, 0x8656865867578677U, 0x4685466884444846U, 0x5587786665758788U,
  0x8788566547887575U, 0x7548446686876756U, 0x7757667668856575U, 0x6677684757465887U,
  0x4564748885678758U, 0x5486586767786787U, 0x4757574677864577U, 0x5566478756658855U,
  0x5774667564576475U, 0x7886858785666654U, 0x6756446858776858U, 0x6659786458758767U,
  0x4865875777467885U, 0x5857867587456456U, 0x8666455578476585U, 0x6846857678677675U,
  0x7744677644647675U, 0x7888767656584856U, 0x4648575757684555U, 0x7787455477858744U,
  0x4746787566647574U, 0x4588678768786874U, 0x8568577485456745U, 0x8588577547658858U,
  0x5646575757456484U, 0x7588554545868877U, 0x6878555665658868U, 0x7778545655784578U,
  0x8777848448478555U, 0x8464766586585788U, 0x5676887754767786U, 0x9846578758688555U,
  0x5476565664858758U, 0x7845484866667568U, 0x4686858987556585U, 0x5755877756585556U,
  0x6578788554788488U, 0x7455588865676568U, 0x7858648874865578U, 0x8877874688578686U,
  0x4484546456885687U, 0x6546677667446884U, 0x4445445564468878U, 0x5555655488687474U,
  0x7777885856755678U, 0x8546586688485674U, 0x6777485644668664U, 0x4966556585867556U,
  0x7748768465667664U, 0x6546664884876686U, 0x8677485886887678U, 0x6857566666776787U,
  0x5877668565688555U, 0x8658545776557758U, 0x6755777548465674U, 0x7746875777567455U,
  0x6564677777886677U, 0x5676667476887745U, 0x6547674478777776U, 0x5784868866555655U,
  0x8747566545645566U, 0x6646765448846858U, 0x6786446556477567U, 0x5875457675574846U,
  0x6544778667886668U, 0x8678488577864665U, 0x6787648486877556U, 0x7655464886447544U,
  0x8766845445677656U, 0x8787677474666778U, 0x6886667684854656U, 0x5846876656566477U,
  0x5487476587745588U, 0x5897885658557454U, 0x6754548786875677U, 0x8788778955868858U,
  0x8667887565675587U, 0x5678548778887587U, 0x7647845688784788U, 0x4866675557888574U,
  0x4754767677768857U, 0x6768664556564874U, 0x5878478867578576U, 0x7768768684885769U,
  0x8668856656587687U, 0x5868777784576647U, 0x7445756785756658U, 0x5764464757564645U,
  0x5776547465558766U, 0x6677555654778457U, 0x9546647688655845U, 0x4654745785877987U,
  0x7656647875577654U, 0x5847566867777668U, 0x5584885765677777U, 0x4685678777777774U,
  0x5778678556576868U, 0x7747788658775855U, 0x8865748588797875U, 0x7646857556678777U,
  0x5755544764777676U, 0x5666467855444454U, 0x4768565588447545U, 0x6867754766676667U,
  0x5747654546858585U, 0x6856466478586757U, 0x8598584767478746U, 0x8674676677786675U,
  0x8778887544788467U, 0x7455758658867868U, 0x5544756874668875U, 0x4485567868655458U,
  0x8887776665578665U, 0x4889467776555866U, 0x7656787579886765U, 0x6687855777785554U,
  0x6478544868487668U, 0x6686577658587685U, 0x8858787875567787U, 0x6875757667877788U,
  0x5845865578766686U, 0x6598868877566986U, 0x7877787895766874U, 0x7678658878466765U,
  0x5885654775665468U, 0x8775466656548867U, 0x6548685476768575U, 0x8788786687745655U,
  0x4588545646667874U, 0x6857665776786667U, 0x6755558655856556U, 0x7544857587587645U,
  0x8865776874567657U, 0x8444567885876675U, 0x6655556576754547U, 0x6746876886546554U,
  0x6666565766877867U, 0x6869568677459566U, 0x6876884867875644U, 0x6477466646458777U,
  0x6478766574567467U, 0x6576775458687568U, 0x6545587586868586U, 0x6777487744888447U,
  0x8756856677887657U, 0x8879867788756788U, 0x5485886584866488U, 0x5564846774448475U,
  0x4556685787848685U, 0x8577484857587844U, 0x6455655767757484U, 0x8764684756876876U,
  0x4468754846776686U, 0x6897786687578488U, 0x6867876777575486U, 0x4587558658467465U,
  0x8766786675886665U, 0x7555685864466654U, 0x6786854547674485U, 0x5485587565847676U,
  0x8884876987468687U, 0x6569878775978887U, 0x4595887677785784U, 0x7674774675646755U,
  0x5666565567674875U, 0x8856845664555756U, 0x6765774586477677U, 0x6846677755676787U,
  0x7586677767887586U, 0x7687888845874648U, 0x7846576585877576U, 0x4767847777545846U,
  0x7884558458774746U, 0x7774867858586678U, 0x8767557587667886U, 0x7685757766474668U,
  0x8766755587678786U, 0x7688764578565986U, 0x7884754857588558U, 0x5555456588657877U,
  0x7587888575587787U, 0x8847856466678575U, 0x6758467678788778U, 0x8788468567658786U,
  0x8848664565476468U, 0x5868658567577858U, 0x6666665679778587U, 0x7784877466567767U,
  0x7588464744778788U, 0x4884648858644568U, 0x6566767464887676U, 0x6757856597868488U,
  0x5867555557668658U, 0x8456668686565586U, 0x4797878765575675U, 0x6657577644586756U,
  0x4584645856678666U, 0x6566574686648578U, 0x6585864786854558U, 0x7454787868685667U,
  0x8458757587685855U, 0x5665585779567685U, 0x7755867788864577U, 0x8446768746847868U,
  0x8478778486476678U, 0x6757465855586755U, 0x8875687767677667U, 0x6768765854678858U,
  0x5868657877844686U, 0x7877567787685847U, 0x5868696884676885U, 0x5654645457887787U,
  0x6857476864885785U, 0x8867855667484477U, 0x7664878767485555U, 0x6847678576686857U,
  0x7886588656557875U, 0x8765785577675766U, 0x6664478657586867U, 0x8548455458745775U,
  0x6778468868755566U, 0x8774768476688568U, 0x7646686676886465U, 0x8657465487758645U,
  0x5776674568575874U, 0x4757567684676577U, 0x7866887667464756U, 0x7664885446776467U,
  0x4665466674866456U, 0x8584868445567674U, 0x5568774455787556U, 0x6687666645877666U,
  0x5665775767556765U, 0x8686758866469865U, 0x6586855768476855U, 0x5488444665846657U,
  0x7676577747658586U, 0x7686778658878567U, 0x5898885856478787U, 0x8747884477577654U,
  0x6855845684676677U, 0x8686685478778657U, 0x8885844865655878U, 0x5747867578454555U,
  0x8555868866558777U, 0x5876668674754688U, 0x6748748886885547U, 0x7577857865748788U,
  0x5684548567458747U, 0x6758576559577566U, 0x7445776658667758U, 0x6758877676446558U,
  0x7786556566746547U, 0x5746657668885666U, 0x8769577658844766U, 0x6647887655547548U,
  0x8776875774576665U, 0x4746557756678778U, 0x6788697476557854U, 0x6476576576876567U,
  0x4467685448676588U, 0x5575757674864768U, 0x7859477777447885U, 0x5464668455787744U,
  0x5645687574656665U, 0x5766876446667888U, 0x8666756746884866U, 0x6477765475665647U,
  0x4775588566858644U, 0x5847777646667576U, 0x5856587858777847U, 0x4556876485674847U,
  0x6767847864768885U, 0x6656585756465567U, 0x6847468765576568U, 0x7876785776658485U,
  0x7868877885866646U, 0x8664786686664884U, 0x6686697558865485U, 0x7888687585457685U,
  0x5587687586545874U, 0x7787556658765564U, 0x5644777878876775U, 0x8677776647865475U,
  0x5677674685677788U, 0x6548675757758774U, 0x8756585665877787U, 0x5746788647548867U,
  0x5656876865457768U, 0x8857578667646875U, 0x6677857668664858U, 0x6855676457764676U,
  0x5777855766867776U, 0x7767547765868477U, 0x7758866658488786U, 0x6754766766786767U,
  0x7757854546578865U, 0x7478795775865884U, 0x6845654448546776U, 0x4777477845778774U,
  0x5546658676466785U, 0x7668577876857567U, 0x8458897885548855U, 0x6654687656677558U,
  0x4576867748785875U, 0x4646786867778856U, 0x4757676867555785U, 0x6556646866847648U,
  0x6677747568575676U, 0x7846758677554478U, 0x6875788747667568U, 0x5888547887675788U,
  0x7567866846687587U, 0x5447656867646867U, 0x7685775556667657U, 0x4578885678884747U,
  0x6445665678754855U, 0x6777586765754545U, 0x8445787777765758U, 0x5446585467846777U,
  0x8875858775468547U, 0x4467877847544888U, 0x4476678564588568U, 0x8776855586577766U,
  0x7765458457755888U, 0x5655674778868788U, 0x6886667754785889U, 0x4587756555668846U,
  0x6887864588778685U, 0x7876766567658578U, 0x6677855786557654U, 0x6575647667777685U,
  0x7756777655458885U, 0x4786675484767786U, 0x8575778875878667U, 0x7775558778746656U,
  0x6766655645877668U, 0x7768858885766874U, 0x5568764854468488U, 0x7577674656854578U,
  0x8777756785787656U, 0x7644747846656455U, 0x5567685755765888U, 0x5878667866858777U,
  0x6467767758676877U, 0x5685668688866757U, 0x8568858554686466U, 0x4765444456657748U,
  0x8475784644546865U, 0x5564557777568486U, 0x5647688676868445U, 0x6478577746588577U,
  0x7878848578755668U, 0x8568778797556568U, 0x7745645445756847U, 0x6658786478785847U,
  0x8874566664878655U, 0x8844585845486786U, 0x8885676686655877U, 0x8756887757768488U,
  0x6567546657586655U, 0x6884776764875565U, 0x6667755448765776U, 0x4777578584687675U,
  0x6555447464466867U, 0x8575877874648764U, 0x5848847788558774U, 0x5788686884775647U,
  0x7577668678764856U, 0x5677887446758765U, 0x7754456857657778U, 0x7544586768446756U,
  0x7688868778877755U, 0x5758566648778848U, 0x8755684867585657U, 0x9695886585755877U,
  0x8757776844875888U, 0x6888588585857958U, 0x5848676675864646U, 0x5756876768584875U,
  0x5485766666758757U, 0x5648785486477848U, 0x7788665558547777U, 0x6968586687657754U,
  0x7778888666586986U, 0x5657677868855865U, 0x5666844778664864U, 0x6864767685767688U,
  0x6886656785687674U, 0x5578775685786456U, 0x4588566878474674U, 0x6898567857756876U,
  0x5855668756497665U, 0x5567857775777886U, 0x5856454748774458U, 0x7665787744857848U,
  0x5566757867657857U, 0x8567764668455667U, 0x7685474565774764U, 0x5558576775655868U,
  0x4678864864659896U, 0x6758578865975885U, 0x7555555648885856U, 0x5545558686855778U,
  0x8844665787777488U, 0x7465685757586787U, 0x6655475558867586U, 0x4876685548486588U,
  0x7767667574778765U, 0x5654676658745888U, 0x5676578747557667U, 0x5655866776656766U,
  0x6865885466478558U, 0x6786486684486585U, 0x6874676488786778U, 0x7659787769788668U,
  0x8746887878569788U, 0x7877768766876875U, 0x7676767777858566U, 0x5754874666664655U,
  0x8764876548668788U, 0x6576867757777657U, 0x7846578785658675U, 0x8576859698787475U,
  0x8567678687685586U, 0x6588866488577666U, 0x7787677876866775U, 0x7746645776586678U,
  0x5864766655867577U, 0x4586487767444785U, 0x4587465556767687U, 0x8566785488844666U,
  0x8748556475887676U, 0x7658566656656745U, 0x6867585777444685U, 0x6777766488757754U,
  0x8777858646545474U, 0x5686556466447584U, 0x5488786555447476U, 0x8658495856466885U,
  0x6888798655875847U, 0x4756867667774757U, 0x5584588786666847U, 0x6685566757775677U,
  0x5868684786755845U, 0x8674846657878646U, 0x6765686877877646U, 0x7678897647566777U,
  0x7774676666865857U, 0x8766485686655855U, 0x4774788866467767U, 0x5768885658656754U,
  0x8847646758886478U, 0x7684444586668445U, 0x9665546678476656U, 0x5556666664555774U,
  0x4777788866685876U, 0x7766564588486877U, 0x6777687465867577U, 0x5558746658765547U,
  0x7768754867554778U, 0x5747467875544584U, 0x8655645554478877U, 0x8564676676957666U,
  0x5867588749549865U, 0x7887686457574778U, 0x4548756558555556U, 0x7886866657486885U,
  0x7666448464884664U, 0x7554566557846685U, 0x7785757854877745U, 0x7556784755765678U,
  0x8478557568599685U, 0x6656678674588645U, 0x5476886875866766U, 0x5687886788664886U,
  0x4488874765845764U, 0x6766675685855576U, 0x8657764878854864U, 0x7756685855888765U,
  0x5488575566858766U, 0x8868768458568776U, 0x6588875755876777U, 0x8567766988574576U,
  0x7677578565475787U, 0x5576476845468775U, 0x7655787764847677U, 0x8768666767594557U,
  0x6574555676775886U, 0x6777566576585646U, 0x5485677664787777U, 0x5948779688768686U,
  0x5885686576464787U, 0x7645758457456487U, 0x8774669478756755U, 0x7848856657748565U,
  0x8875867888779566U, 0x8486786568746568U, 0x4846775546586764U, 0x7887545777656447U,
  0x7447555687887485U, 0x4567646457476756U, 0x8868867684655845U, 0x6888588777778854U,
  0x8685856568767788U, 0x5555875875665865U, 0x5866768975645648U, 0x8768676676886665U,
  0x5666676447748677U, 0x8646844888485457U, 0x8885855564585588U, 0x5668744845978854U,
  0x8758886687746566U, 0x8858567855656664U, 0x7778656667576674U, 0x8856867867689888U,
  0x4447768586857778U, 0x6646768756664546U, 0x7478758867658487U, 0x7557658587647577U,
  0x6697557888665685U, 0x4676476767856865U, 0x6886687577566568U, 0x7677775687574768U,
  0x5687646555768575U, 0x5645846588467648U, 0x6747776568856545U, 0x6868787547586558U,
  0x7577677758668875U, 0x8754877778874654U, 0x4554566788876887U, 0x4556849844655568U,
  0x5574656675865787U, 0x7444664746775467U, 0x7676588676586547U, 0x6775785894557685U,
  0x8664865758464587U, 0x5876544846879887U, 0x6648474585864857U, 0x7568446484865784U,
  0x6657664867678876U, 0x8888457688686666U, 0x4847565565688867U, 0x7589595856555688U,
  0x4547875467458677U, 0x5495766566675845U, 0x6846668676845566U, 0x7846568877467684U,
  0x5586876666878686U, 0x4777867557484787U, 0x6556688856647858U, 0x9554687476886677U,
  0x5866789868655865U, 0x7544785576576878U, 0x7556876794586875U, 0x7867794866587847U,
  0x7455686857876556U, 0x7547547568755587U, 0x8584756567688758U, 0x6478767858686886U,
  0x7685468858887765U, 0x8768847756868675U, 0x7587666778654676U, 0x8687787768746758U,
  0x9787987596899586U, 0x7a98aa8aa87a9a79U, 0xbb89bb9a9b998998U, 0xaa8ac99abbab89b9U,
  0x989689888a989979U, 0x77887666879996a6U, 0x968568a876676556U, 0x7764347567487449U,
  0x78a9669687977668U, 0x7aa9999b98778899U, 0xaa8ba9898a999ab8U, 0x9abb99bb99998a89U,
  0x6786568776787a98U, 0x66a799997a9a6678U, 0x8699888769867587U, 0x5655577587774668U,
  0x6687989679978987U, 0x97999aaa8b78998aU, 0xab9a89ab9b77aa79U, 0x8ab8ab7b98aa8989U,
  0x9875579877578879U, 0x86679889aa987886U, 0x7777777989976986U, 0x4588756355648699U,
  0x58766986999888a7U, 0x768a967989786987U, 0x779a98898568a777U, 0x6a77a8a797985967U,
  0x7566695584577889U, 0xa58889999a978767U, 0x88a79a7787686668U, 0x5444758548545967U,
  0x5577788888888897U, 0x8664696678967746U, 0x9778664566899967U, 0x59887a6968995776U,
  0x8886764674347486U, 0x79679a8799588545U, 0x6567796579999899U, 0x6455466884758866U,
  0x565769a8967999a9U, 0x7645337688997547U, 0x5769979779788774U, 0x8568986996784646U,
  0x8779559634346678U, 0x8a596a6967779975U, 0x887b997777a8777aU, 0x5587785746488588U,
  0x749798968a6796b8U, 0x4456444596788968U, 0xb8a8a8a979777753U, 0x86857659867997aaU,
  0x8777677766668755U, 0x997a98979987a869U, 0x9987965679978997U, 0x4556745558558778U,
  0x98778679997879a9U, 0x6563458577966856U, 0xbbab978aaa893774U, 0x9698787668aaa8baU,
  0x8567987663569666U, 0x997a799989687686U, 0x789778a99a9ab997U, 0x6677767748676567U,
  0xa789a9978788959aU, 0x3375766675559978U, 0xab87797698996973U, 0x89a7b98aa89a78b7U,
  0x797886886777aa89U, 0x899a889a98968766U, 0xa7985a799aaaabbaU, 0x7567676389787978U,
  0x7698988aa8689699U, 0x7477977559686799U, 0xb8ab684597763854U, 0x79b8a99a78a9799aU,
  0x6785558836769767U, 0xa99886799a678575U, 0xa99a8887887a9889U, 0x4476666469867896U,
  0x677869a877897789U, 0x97a9878787766777U, 0x7a68894688476657U, 0x79768a8885979889U,
  0x8978793764768755U, 0xaaa9679a69996679U, 0x89798aa7788898a9U, 0x45366483777578a9U,
  0xa9886a8a68966779U, 0x6966699975999675U, 0x678a883648765457U, 0x5585485689786968U,
  0x8689aa8997a88a89U, 0xaaa9aa8899985987U, 0xaa999978aa8989b9U, 0x7546758485879997U,
  0xa997a98647656998U, 0x9666788677847979U, 0x8656784784786674U, 0x8588869788768857U,
  0xb789ab77979b8787U, 0x7889a88756579799U, 0x889979a8a89978aaU, 0x6755446788677987U,
  0xa987976648786878U, 0x9699886576676768U, 0x4558646668466676U, 0x85a8686485958545U,
  0x988b89a999796755U, 0x7698989748858966U, 0x99a8a788979886aaU, 0x6648647577a69989U,
  0x6799776878778999U, 0xa967896778755856U, 0x5569577755648796U, 0x6599956555476845U,
  0x687a777698687684U, 0x5897aab84844a9a9U, 0xa9a8a7877a9988a6U, 0x5787647696999995U,
  0x88a7a969966768a8U, 0x798a895887345557U, 0x8799336777886888U, 0x7766754753344645U,
  0x9778a96798965687U, 0x8589767a88377967U, 0x86987a7a79878998U, 0x6669769977998989U,
  0x67a79696768767a5U, 0x7767797878576688U, 0x66997865486578a7U, 0x5746565444456745U,
  0x6657974677754787U, 0x9568678868457987U, 0x9a97899887a68769U, 0x977886b98987978aU,
  0x5576656677656686U, 0x7876788467867768U, 0x75797576858768a9U, 0x6645473563463577U,
  0x8899675876557756U, 0x7897887799778a9aU, 0xaaba875a77975676U, 0x758997a99b997986U,
  0x4664755989567598U, 0x6978845555676445U, 0x6637667689789869U, 0x5454865734343633U,
  0x8667458487856875U, 0x6988989a8a978a96U, 0x6779799787886745U, 0x89977989b88899a7U,
  0x6677678698875677U, 0x5656765776846453U, 0x654789996775677aU, 0x2333563575443523U,
  0x5987657497786965U, 0x8778777968788b79U, 0x7698678965695979U, 0x986969a69a9a7665U,
  0x75766598a9895875U, 0x5a85564786773563U, 0x3446548477976897U, 0x5853567898756537U,
  0x6484577646678877U, 0x9a75a98764aa8a77U, 0x78a897888766a988U, 0x6768999899ab8778U,
  0x5576596786886888U, 0x6765577866857857U, 0x3575245387aa6958U, 0x9766455678474346U,
  0x687447845868a878U, 0xbc77a8776576996aU, 0x87984585474489baU, 0x9798987779885798U,
  0x7675677886a8a987U, 0x7776479776779888U, 0x4337233594aa7577U, 0x5799893467667777U,
  0x7858759a8a9a9787U, 0x9b97888988797799U, 0x986a97469868a9a9U, 0x696988a8a8a98965U,
  0x979766756679aa98U, 0x6577785778796777U, 0x12342352536a9878U, 0x4996988765454844U,
  0x78899777a8abb9a9U, 0x7a78988888889998U, 0x769a986686749966U, 0x68788888a7887988U,
  0x785755688a878977U, 0x8959878978aaa879U, 0x3423324367995797U, 0x86798a8958852545U,
  0x8767695598998a78U, 0x9888668679895888U, 0x9678876653869798U, 0xa797877659988997U,
  0x765664889a76aa98U, 0x76898677a99a8778U, 0x6554326478767a99U, 0x58a5aa7a88766364U,
  0x7a9838546779aa8aU, 0x6747757769768898U, 0x9876895567986885U, 0x9886687569665896U,
  0xaa66477797a7aa6aU, 0x86997769a8aa8757U, 0x4246256334748675U, 0x89986898a9778635U,
  0x695436865787a989U, 0x894676454697889aU, 0x7856887676888786U, 0x6767674787795757U,
  0x97577757697aa888U, 0x98a99a977779a776U, 0x6344343345679766U, 0x998b799ab9aa9863U,
  0x59987788577897aaU, 0x8745644456658698U, 0x7566758876789798U, 0x5967995866875845U,
  0x679575677699a79aU, 0x66987978a77a7786U, 0x6665354374778666U, 0x999a978998b9aa84U,
  0x6758665847646797U, 0x6945664474478878U, 0x7857577879889985U, 0x8884865636585664U,
  0x9978674464788a98U, 0x979aa7a7896968a8U, 0x688678358558977aU, 0x9787988ba8776957U,
  0x9787669778757587U, 0x6657665587657696U, 0x6799768878699759U, 0x9765966964755734U,
  0x776867566696989aU, 0xa8a78978a8988976U, 0x789a6675546689a9U, 0x77698788a9998889U,
  0x9889878685578777U, 0x4855754567999768U, 0xa7a9798789a7a659U, 0x7a79855754848853U,
  0x8677867857968697U, 0xa8a77aa98a778788U, 0x78898764474597a7U, 0x8869757a97869888U,
  0x7887655768638785U, 0x8656646476477476U, 0x8898888978778867U, 0x8a79744945437646U,
  0x69567877787869a8U, 0xaaab7a978998847aU, 0x788847546464958aU, 0x6667789998786677U,
  0x7788677675459987U, 0x7868776767965658U, 0x8a99799869a99798U, 0x8968586736355674U,
  0x7997695855999996U, 0xabb8aa7a9aa9a999U, 0x5876777465989799U, 0x66588769986885a7U,
  0x4577785673677768U, 0x989977877a677776U, 0x968a78a779ba7989U, 0x8968474744653363U,
  0xa9688899968a8877U, 0xabb8a87ab78a7997U, 0x68865743668875a7U, 0x9789877576798486U,
  0x7558696677777787U, 0x6888868767878765U, 0x7798ba9a9a9866a8U, 0x7b79866457463378U,
  0x79998aa9875a989aU, 0xbb9a999998a97aa9U, 0x9798964437668899U, 0x886989798a796875U,
  0x3496585877979999U, 0x7776a78976796966U, 0x7789bb9aba9985a8U, 0xa889579465779788U,
  0x9a6898aa99797878U, 0x9a8a8778aa999b79U, 0x997a996446449787U, 0x6979797a97875795U,
  0x3686346785aa8a99U, 0x8986996878875665U, 0x9aa9bbbba9a779a8U, 0xa9a755a838678486U,
  0x88a9999976987689U, 0x778a6aa7a8a97ba7U, 0x99aa6a6879758759U, 0x9989899a8a898b98U,
  0x7986658597ab9989U, 0x89658a5868797987U, 0x9abbbb9a78987895U, 0xa98a569858967667U,
  0xaabaa9a979687785U, 0x5485794666876797U, 0x969a677448549836U, 0x777998a788a88879U,
  0x67697577856aa999U, 0x98767759a9798586U, 0x9889baaa988a6895U, 0x9a79656899985987U,
  0x9899878866996a66U, 0x8696a96776799799U, 0x9a88797456335678U, 0x798898a8aa777879U,
  0x7675989976885878U, 0x55735867684a7676U, 0xaa7bd8cc889a6864U, 0x9897658698798997U,
  0xb9999aa765897858U, 0x77868856a88a5788U, 0x7998788467558687U, 0x7876799a997889a7U,
  0x7958669789697868U, 0x4675783453547875U, 0x9aaab99baa997746U, 0xa949745488785889U,
  0xaab88a6a79968687U, 0x98a799a98979a987U, 0x798876543563a959U, 0x775777a688796977U,
  0x9765345588786776U, 0x557755363374887aU, 0x759ab9a99a9a8647U, 0x8764448657868568U,
  0xaaa9ab8969956899U, 0x87677779aa99a8a9U, 0x98448687346579aaU, 0x887888a988675855U,
  0x6844234445545364U, 0x8656483666687549U, 0x96b97aba998b7965U, 0x7956649888868566U,
  0xa8aab88955899678U, 0xaa569a89a8797999U, 0x898854758696a98aU, 0x9775789787694865U,
  0x8746227478889688U, 0x467467868a55a675U, 0x669999bba8997976U, 0xa976558475695775U,
  0xa99999a9979a5578U, 0xa85788888a857ab8U, 0x79634366779a998aU, 0x9495897a67684687U,
  0x57376356a8965754U, 0x7877988a6976a959U, 0xa887a9a999a96644U, 0x7687577546886699U,
  0x8ba9979a87798887U, 0x8988968868656789U, 0x4732954663896666U, 0x88ababa98b777666U,
  0x53363376ba484655U, 0x7888a77997997845U, 0x97ab88a889887968U, 0x679667477778896aU,
  0xa9a9998a96979675U, 0x7866989877697677U, 0x5767959995668779U, 0xaab8aaa89baa8998U,
  0x66677395798997aaU, 0x97b6899b99a89a89U, 0x95b899888a777967U, 0x777a666697879a88U,
  0x899a797879896786U, 0x5a46659758898766U, 0x9996688865845785U, 0xa798897a9aab89aaU,
  0x455656a89a95aaa8U, 0x6698b99b79994957U, 0x859a887997696735U, 0x96aa776587467858U,
  0x778a79aa89789857U, 0x8767756878769888U, 0x99a9887585957597U, 0xaa79aa98aabaaaabU,
  0x6789479787a66aaaU, 0x8777b9998a7a6887U, 0x866978a878694767U, 0x86797a9779767796U,
  0x88a996a896775759U, 0x5986447676798797U, 0x78aa9a788a574576U, 0xaa79a7a8a9ca8c99U,
  0x7778579968878889U, 0x9676a99979987899U, 0x4487998996674885U, 0x998aa78786658675U,
  0x976a7a7978776664U, 0x7a9568574866978aU, 0x999a8966787456a6U, 0x9999677987bbcb8bU,
  0x5566758788889978U, 0x7886989898aa9a66U, 0x787647a77768a897U, 0xaa89788567799888U,
  0x9a98976967868887U, 0xa988697736767698U, 0x8959989988978998U, 0x9999964884797989U,
  0x889945b7a899aa99U, 0x897a988699a8a679U, 0x8554669596668998U, 0x98977a4879786776U,
  0x8766675659996797U, 0x54756766546467a5U, 0x9786889797976999U, 0xa89976794575a778U,
  0x789a957997796779U, 0x997688a98a999698U, 0x658866688777a999U, 0x9a9766a697687858U,
  0x9885669885696497U, 0x9888946877656366U, 0x5976988758997876U, 0xa989949947969757U,
  0xbb9985a688568988U, 0x9c97669989aa799aU, 0x6565447969a9ba9aU, 0x998a6aa968585798U,
  0x8869977867785976U, 0x6889586786479859U, 0x9488689887995856U, 0xa958655684a78686U,
  0x8b787987867a6688U, 0x898a97677a8a87baU, 0x69679887878aa78aU, 0x88a8ba8889968797U,
  0x8788776876684556U, 0x9a87874764769668U, 0x76877496a9565879U, 0x9a9aaa7755a74669U,
  0xa97586a98a9aa899U, 0xaaaaa9898a87aa9bU, 0x787869788b77a99aU, 0x7897a988a7876698U,
  0x4357859678576856U, 0xa9997a3844987975U, 0x5667646584556457U, 0x7a9aa99847548676U,
  0x7b8788a9868a7967U, 0xaa9ba998abaaaa98U, 0x7788668679a85779U, 0x48769986a88a97a6U,
  0x5353769686868868U, 0x6789898664834575U, 0x687999a977774567U, 0xa9aa8b7aa956977aU,
  0xaa796877b8ba7a69U, 0x98b9b9aaa9aa9a87U, 0xa888786689aa9987U, 0x767588899a66baa9U,
  0x5575699867886697U, 0x6846957577675466U, 0x968a677689574366U, 0x9abbab8a9787a899U,
  0x79a8a7978ab99ba7U, 0xb9ba99988ab98b98U, 0xaaaa886698798989U, 0x6676698977898ab9U,
  0x2564877967687879U, 0x5854766365757543U, 0xaa7a968796674633U, 0xb8aabb9a7996a9aaU,
  0x7899a796aabaaca8U, 0x78aa97888879a988U, 0x98aa8966a9999a87U, 0x6455876688699aa8U,
  0x5236656965898559U, 0x6669876877776633U, 0x8889897968876754U, 0x889aaa8877797a9aU,
  0xba6898a788987aa9U, 0x977967795a746695U, 0x888a795597aa7886U, 0x3656757977798799U,
  0x3345886666799466U, 0x6777966456696736U, 0x9ab8996777675644U, 0x96aaab7867897aaaU,
  0xa687776574576887U, 0xa899796a78896787U, 0xaa8a996599999697U, 0x43885898998878b9U,
  0x3454656866798759U, 0x5936647637748666U, 0x8ab8aa7a78566775U, 0x96768a867857777aU,
  0x8835363355634857U, 0x869a78aa78997786U, 0xaa88a868a89678a8U, 0x65456586987677a7U,
  0x6673658587899987U, 0x69663357769aa999U, 0xa7bb787897648897U, 0x885699988846989aU,
  0x8744324443445776U, 0x869a99aa9b888968U, 0xaa89a98899978686U, 0x665655575867789aU,
  0x5676358586867896U, 0x6966767456a79789U, 0x9baa9a7889469899U, 0x75487754a759a7abU,
  0x9737344374657845U, 0x5489595979689a88U, 0x88a8b97a79798879U, 0x5785475466796658U,
  0x9a73589877686779U, 0x7a357566869a6a78U, 0x8a7778679978ba6bU, 0x887674647488a9abU,
  0xaa65486456775976U, 0x564768679475759aU, 0x5897a89a87755745U, 0x7745646696955558U,
  0x7a579a8866779977U, 0x8857656474a67898U, 0x897987879a989669U, 0x454553479676998aU,
  0xa9a8798468585778U, 0x573466656478a9b9U, 0x4477898785444787U, 0x6636576568643644U,
  0x6897689969976787U, 0x6766876765869988U, 0xa7a69a8a6a977766U, 0x446436545484a899U,
  0x9a68785755583735U, 0x6444346655889799U, 0x7758a84a36536765U, 0x5588898858683464U,
  0x9579a66796a6a689U, 0xaa69868686998979U, 0x8999999959a89789U, 0x5477644776977778U,
  0x78a9985564367454U, 0x33257587878789a8U, 0x5574966966335457U, 0x7856967878437544U,
  0x6478897676989896U, 0x98778668888a7979U, 0x887798aa869a99a8U, 0x7766756467778787U,
  0x88ab79a866446889U, 0x4454446464476787U, 0x6456857875364477U, 0x7889546556775847U,
  0x7769665668679888U, 0x8859786786877867U, 0x78a787aa9aa85699U, 0x8896554384776767U,
  0x9978987846786445U, 0x6324466445577767U, 0x4465645785243484U, 0x9976446577567837U,
  0x9969785674959777U, 0x8997769a64888776U, 0x757767a97aa78597U, 0x576896a9a8a87877U,
  0xb78b7aa888588477U, 0x4453537697786387U, 0x7857747545446645U, 0x7767465666548787U,
  0x6777788976797768U, 0x866a88a778896585U, 0x748795999a679977U, 0x98855694588a6864U,
  0x9a9ba77775597678U, 0x6456526578966887U, 0x7876542435426477U, 0x5986563455647876U,
  0x7985799997588765U, 0xa5a999a999793598U, 0x5688998978a79777U, 0x978a796588885577U,
  0xb899787797768887U, 0x7848434587989996U, 0x7476685754657398U, 0x7948355767975758U,
  0x3674a99889978968U, 0x84b8b7b8aa985387U, 0x7666969a9a9a7967U, 0x78774757959a4556U,
  0x567a76788959ba6aU, 0x875768a7a9777764U, 0x6757873324645699U, 0x7658583859968788U,
  0x34848978886588a7U, 0x65aa696887886368U, 0x8667a8aaaa899a48U, 0x85685786949a4888U,
  0x55546675a768a7baU, 0x69a96969a9557547U, 0x5877475325954776U, 0x986977889686a889U,
  0x7376a87789666767U, 0x8789684335473478U, 0x7876a6a99a985996U, 0x68956a7575885977U,
  0x66534576964967a8U, 0x99aa6a9a9b689568U, 0x8454648458688998U, 0x89a9798779968867U,
  0x56a899a978369766U, 0x9977632432654246U, 0x587864897a879889U, 0x7857984636947965U,
  0x7579695599648797U, 0x5a98888aa98a7977U, 0x8734577978566889U, 0x579a988968888a47U,
  0x5588698796676988U, 0x9977754453476654U, 0x4884788677675968U, 0x8989694487999b98U,
  0x669879779a65a5abU, 0x7aa7898898ab6688U, 0x448675388668a789U, 0x9989a96768656864U,
  0x9668687969896676U, 0x8835563775567443U, 0x9976898a78869979U, 0x886759334768a99aU,
  0x8856464796674698U, 0xa9bab86a9a987a78U, 0x6747755664877887U, 0x7aaa998975677736U,
  0x7887a976897869a8U, 0x5367377365477765U, 0x7766786778aa7958U, 0x867846448468878aU,
  0x68673623765544a6U, 0x79a9ba8a9a874498U, 0x5576684576677a99U, 0xaa89a7a989665953U,
  0x7759897a6779a88aU, 0x7674458668774554U, 0x99857998ba995776U, 0x6a47667369978babU,
  0x66532375897976b7U, 0xa89b9b999a856559U, 0x586778356579a89aU, 0x9aa9898999767746U,
  0x8738967a8888a889U, 0x8867864476566754U, 0x7a8778abbc9a8a87U, 0x777676a97aa79bbbU,
  0x7677865888a98876U, 0x98a88ab988677548U, 0x68444357888977bbU, 0x789698ba9a466677U,
  0x77758989998a888aU, 0x9967789659474683U, 0x99c789c9ca8a7799U, 0x8686658967689b78U,
  0x77958a898aa78a79U, 0x977a999986986958U, 0x3747676796769678U, 0xa889789a59866655U,
  0x88678876a8b8789aU, 0x9a98996775476655U, 0x99a99899998978abU, 0x5777979a7888a97aU,
  0x7988894759b89897U, 0x9859796666a67997U, 0x567678a577888696U, 0xaa99aaaa79465565U,
  0x8665869698898baaU, 0x7a989a5988553763U, 0x99b89aa867a899caU, 0x7a5877a9859697a9U,
  0x77aa967666958998U, 0x898a98597469a57aU, 0x8847788697a69979U, 0x8998b89a79566647U,
  0x59386878988aaaa8U, 0x77986996594545a5U, 0x6798aa6799ba9c9bU, 0x9b59848758899998U,
  0x7778956668a568b9U, 0x8799677843849699U, 0x86786658978a9579U, 0x8968a79966565757U,
  0x784645989aaaa9a9U, 0xa6579999995897a8U, 0x6685899abaac9aaaU, 0xa9bba6aa8897999aU,
  0x78948666759679a9U, 0x7998779585474886U, 0x7556997889988889U, 0x9869799968967845U,
  0x67684458a79a9a97U, 0xa7779a7877958997U, 0x4579789aaaab89a8U, 0xb9aa8a9a98769679U,
  0x9a78888788b998baU, 0xab89537878464664U, 0x53576986877b9988U, 0xa9a97a4668566555U,
  0x8696656789b9a8b8U, 0x7798977975878879U, 0x5484999998ba9797U, 0x8899a89976896885U,
  0x79789967689799a9U, 0xa97757678a646553U, 0x454466888aaaa8a7U, 0xa789576788865965U,
  0x77784595989a999aU, 0x9986768779a66886U, 0x44a9aa8a77a9988aU, 0x8758a69987559686U,
  0x66997a69778aa89aU, 0x7843457743656853U, 0x66797867879a9a79U, 0x76887a7564456735U,
  0x546776977798aaaaU, 0x9869887786978556U, 0x6658898956978aaaU, 0xb7889a794854a56aU,
  0xa79978887a88c88bU, 0x9868545653523632U, 0x85797676789aaba9U, 0x9a89897476654666U,
  0x976887aa79a9ba8aU, 0x6a89478879784898U, 0x6757765774876764U, 0xaaaa8a4a74697868U,
  0x888879897a68b79bU, 0x9a66867778775423U, 0x988a986786999a88U, 0xaa7a788477776544U,
  0x448689aaa9a8b8a8U, 0x76a9766967866676U, 0x6477788667a99a47U, 0x6786873645988879U,
  0x688667986a78b8aaU, 0x7958a77978765463U, 0x967897589aaaa8a9U, 0xac7c47a45a548564U,
  0x65a99789a797a8a9U, 0xa6aa8aaa67995677U, 0x6568789667767867U, 0x8858995967979845U,
  0x598597985964b9abU, 0x5796a978a78978a9U, 0x84a9998768699779U, 0x9977868a79478675U,
  0x977585678799888aU, 0x7899989999766667U, 0x5874785487575688U, 0x5796a96825a47874U,
  0x5a7976864886ab9aU, 0x5898a769558779a9U, 0x96a88a6a8a685785U, 0x87965699a9786876U,
  0x8995747578a9876aU, 0x77ab9987aa466657U, 0x7685688566467677U, 0x6673b99a53735742U,
  0xab78a678a779b98aU, 0x8799687a7a9a87a9U, 0x8778aa7788896a89U, 0x9a98777698447789U,
  0x6987786677799677U, 0x6688896765459769U, 0x7664786556697798U, 0x957966a856746665U,
  0x787977aa8797aa56U, 0x877778a9898987a8U, 0x8679876797877949U, 0xaa7b7798786688a9U,
  0x9869659986997977U, 0x79aa9a7877898696U, 0x88648633776a6866U, 0x6ab8998777864746U,
  0x898797676ac78955U, 0x799669a98944669aU, 0x6678889869979796U, 0xbc9899a8995466a8U,
  0x895a76547897889aU, 0x89ab8858568a7988U, 0x4985764387898a48U, 0x79a97a8344885686U,
  0x658676b999a7bc95U, 0x9969888a96457378U, 0x8669779797766465U, 0xab9999594533657aU,
  0x6876475485697aa9U, 0x87899a9877988856U, 0x7679689697898946U, 0x9999576687585499U,
  0x534488a87aa9ba8bU, 0x9787539877544369U, 0x4667786576777768U, 0xa979744774547658U,
  0x7a757776a868a687U, 0x85a9778788889599U, 0x5b6565556786a856U, 0x85a87774458886a9U,
  0x7647789597b9ab89U, 0x8478748a48753567U, 0x7496867755797878U, 0x9a98557855763474U,
  0xa769666757878979U, 0x87b799977799a899U, 0x767755687986776aU, 0x58866b5386768588U,
  0x669a89b689aaaa6aU, 0x9649686759759796U, 0x8489989997799987U, 0x9b9a878879538587U,
  0x98776768748686aaU, 0x8889a8689879a7a8U, 0x897698546587a958U, 0x5464897769a74874U,
  0x979aa7ac9bbba878U, 0x7a99677a984988a9U, 0x875996787797a799U, 0x8b9868a756239476U,
  0xb959755789895688U, 0x98877988a9788879U, 0x8b8987a78879bba9U, 0x7378888965898899U,
  0x8499a7db9b99a869U, 0x9a9768a679967738U, 0x9799987967778979U, 0xa987485378644699U,
  0x78696467aa8a8889U, 0x88448898a65897b9U, 0x8a789a8699a987a8U, 0x7657843545aa7998U,
  0x758646a899997649U, 0xa98a889567458568U, 0x87a7986797677896U, 0x8a47568577569676U,
  0x89686789a9996899U, 0x6854666888985797U, 0x998a7867a9ba7a88U, 0x5968773473a77a69U,
  0x68688876879b6455U, 0x968986a879898479U, 0x7774a87a79988966U, 0x9b78844625458696U,
  0x5a988977678783a5U, 0x8874778568797a99U, 0x998a959986a98768U, 0x5467542555a8a8a9U,
  0x8985799a989c5343U, 0x7785589988875598U, 0x857884968a86a768U, 0x997a796653657559U,
  0x796689a988464558U, 0x667567465897a898U, 0x88a9767888a87846U, 0x766832636666998aU,
  0x8799a698c8ab7746U, 0x664856986796697aU, 0x5855636485899988U, 0x7677a68865a66966U,
  0x7788776769777477U, 0x78567a7876999877U, 0x8a9b7969677a9988U, 0x7647438575768a86U,
  0x9989ba76aaab6655U, 0x9687669789765788U, 0x4978787684996899U, 0x7a39747986787896U,
  0x97a9677887465678U, 0xaa666784557967a6U, 0xabccabb988999958U, 0x5631328764668789U,
  0x9876ba78a9676663U, 0x6888898867787896U, 0x97a7aa6a77756865U, 0x7757786486869986U,
  0x868997a989666567U, 0x9b76997958a85899U, 0x7ab999b999785777U, 0x5543735658779898U,
  0x4886799aa6887779U, 0x5977989967856898U, 0xa49aa9a8aa377386U, 0x7a8a862376875858U,
  0x9566a6979a7a5868U, 0x5978a86796896577U, 0xa987799888995884U, 0x5674446486469898U,
  0x96b858a796899998U, 0x88554588557787a7U, 0x79699a6796756767U, 0xa789783348747785U,
  0x6586899877597667U, 0x5687a7896a988567U, 0xa9a998a799887794U, 0x676666367646baaaU,
  0x95869a9977999a88U, 0x7546886645667a9aU, 0x8658996678a79b99U, 0x99798747a9586765U,
  0x9878879867687689U, 0x5a957aa77a798974U, 0x98b9a87786577899U, 0x59787465745798bbU,
  0x6668864588798576U, 0xa76687877887a9a9U, 0x5554989958588888U, 0x86a99669a7787797U,
  0x87988a66897776aaU, 0xab9a699977788989U, 0xbbaaaaaaa89987baU, 0x699677494859aab9U,
  0x5767375685695767U, 0x8778888978a7868aU, 0x8675635477859777U, 0x6967879967aa8686U,
  0xa7ab897968656859U, 0x8bb999798b96a979U, 0xab9b9b88798789c8U, 0x458576a88667b9abU,
  0x7969998787643645U, 0x97a6a8666877a699U, 0x7858756588849889U, 0x9969446896897996U,
  0x998b6a8786978767U, 0xacbaa7aa979aaa8aU, 0x99aba99b5888bb99U, 0x3684546868a9989aU,
  0x85a8aabb88667454U, 0x78a6a8796a775566U, 0x98764555898a8877U, 0xa879475378887a75U,
  0x97a8798864766766U, 0xbaca9aaa787698a8U, 0x8aa8aabbba9abacbU, 0x567769968787baaaU,
  0x5465899c5979a68aU, 0x7aa9b899887a4856U, 0x967a684489a98a6aU, 0xaaa88978687a6888U,
  0xa96898899678887aU, 0x9a8b99a966887998U, 0x997799a888ab8b79U, 0x75a8a98989658a69U,
  0x9698557787566878U, 0xb989987766675497U, 0x7565767789999baaU, 0x98bc67689468a987U,
  0x899b8a8957868896U, 0xb8b9889a76684889U, 0x997989987988a986U, 0x96a7979869767789U,
  0x9679787477676745U, 0xa987895884767686U, 0x89545855667879aaU, 0x989a875967a69986U,
  0x7477687888857997U, 0x867777aa877a6899U, 0x9787897679a87767U, 0x9568776888669967U,
  0x6564968686978984U, 0x9959697679568558U, 0x78687555888666a8U, 0x8a9986676574b989U,
  0x7695795976774758U, 0x86aaaa8976a89998U, 0x8589997886a68778U, 0x9799679666567667U,
  0x6457889a6a976757U, 0x8999998976876554U, 0x96796778898987a7U, 0x799aaa4667859977U,
  0x7699985868758858U, 0xa8877a9967966968U, 0x888785a8659976a8U, 0x96899ba869998896U,
  0x4467869a9a979869U, 0x78a9975864533442U, 0x8a68867678899a99U, 0x8b899777657596aaU,
  0xa699676886564765U, 0xa98aa9888979a998U, 0x875579897797878aU, 0x7594676676656867U,
  0x97a97787a9a76757U, 0x6597674865227386U, 0x7866768675987964U, 0xaa88a76889889699U,
  0xa799869799868699U, 0xb99a979aa7969687U, 0x745776779888a787U, 0x7577778859956675U,
  0x799a8b6775986999U, 0x6886465575687866U, 0x8977577779784576U, 0xb9bc997989858a97U,
  0x778977565644776aU, 0x7668658576878795U, 0x4875a68976958a99U, 0x9697886a88766966U,
  0x6797aa8855768566U, 0x988978a788865995U, 0xa757887868689798U, 0x87aa8899987a8798U,
  0x9777886735877579U, 0x6989686667659878U, 0x7876895748969858U, 0x88a8688999779866U,
  0x7955975788757668U, 0x8799a87988678976U, 0x8789654666556565U, 0x79a99887997967a8U,
  0x6845779969596767U, 0x7736223474457457U, 0x4346314525443346U, 0x5747253152435343U,
  0x6878957756469677U, 0x4958866346676878U, 0x8768666766799978U, 0xab989b9b7ba9aaa9U,
  0x7558899966697859U, 0x7743464235674875U, 0x5336336347546635U, 0x3634342335538757U,
  0x7855688757755744U, 0x4745767436855698U, 0x7975878664686769U, 0x7aa8a9aa89987a88U,
  0x7998565984767697U, 0x7847454644476674U, 0x4333445564576485U, 0x6623447644545438U,
  0x97797956776a7876U, 0x6657866676746577U, 0x4576636857997697U, 0xa97aa8aaaa797956U,
  0x8a89699757587655U, 0x6855665487997888U, 0x66678686aa767896U, 0x8684547499897688U,
  0x6887679877aa9955U, 0x5767773676956998U, 0x6546846798978788U, 0xbb9bab9a77889689U,
  0x88a8986795883845U, 0x8889867675758a7aU, 0x667868a88a87568aU, 0x8657755896787855U,
  0x99a989b9aab98a79U, 0x3694745766797789U, 0x5853657678593476U, 0xaa8998899a9a6787U,
  0x8aaa878768877855U, 0x9a8aab8768979796U, 0x8779468676877798U, 0x789896766768899aU,
  0x86759988aac98a9aU, 0x4496585776778599U, 0x3975788745877445U, 0x9aa88a9a8aa877a9U,
  0x8977855655848634U, 0xababaa9b7a899788U, 0x3742545554999aabU, 0x7997876a79668857U,
  0x7754a898aaaa988aU, 0x6586467474885576U, 0x4543758448464367U, 0xaa99b8a9aaa79999U,
  0x8977865665775757U, 0xb99a8978798a9897U, 0x345248644587b9a9U, 0x9786687566355634U,
  0x975667a7aa7888a9U, 0x4456547384885885U, 0x6733654544373474U, 0x9aa8a89a79899957U,
  0x4866749587768864U, 0x9c79897999986974U, 0x455695573497baabU, 0x6667544375576334U,
  0x87667968879b7779U, 0x4353333435343476U, 0x6643888674462255U, 0x9a88aa6b99678759U,
  0x8967466459868787U, 0x7b679977a8776955U, 0x336478996886aaacU, 0x6745447774687745U,
  0x57667a79aa988999U, 0x36436364837657a8U, 0x3433333386366445U, 0x98abaaaba5885658U,
  0x678a464667578746U, 0x8884648a78789768U, 0x4384768a989aab78U, 0x967b56569a978655U,
  0x677777b8a8996979U, 0x2343446774648886U, 0x6343542665773443U, 0x89a9aa8a89854756U,
  0x4998485597796788U, 0x7986649a9b7a7976U, 0x879585a8a999999bU, 0x9999aa8889698789U,
  0x68446365687677a5U, 0x5534425843779666U, 0x5354846366645365U, 0xa9abba9967577734U,
  0x4553778799767679U, 0x9a697877989a5585U, 0x9998b8abbb79bb8aU, 0x5857987887a6a888U,
  0x5632439548847877U, 0x3435446564877788U, 0x4333574747544474U, 0xa6aaab6a88465634U,
  0x687897989a9a8685U, 0x466777a8a88b8699U, 0xaaaabb9ab88aa979U, 0x877699999978989aU,
  0x523242673773969bU, 0x57742335956a9765U, 0x6565343374635567U, 0x88a8ab7a86476668U,
  0xa757a78698565897U, 0x38748897b99aa79aU, 0x7998999a99988a69U, 0x5995767899a97a98U,
  0x567747463598a69cU, 0x6988332397a85535U, 0x4454473457767657U, 0x87a7a98a67366356U,
  0x777768546786a879U, 0x478865a6a8ba8997U, 0x8b57ab8b99a99859U, 0x879988b99babb98aU,
  0x585547587889b9abU, 0x5a47645574ba7556U, 0x6433756365546558U, 0x9987c73657345478U,
  0x997958887a979968U, 0x6688979a87869887U, 0xba68a99a8a7b8734U, 0x77a69aaabacaaa88U,
  0x977658995987a799U, 0x5697644679896757U, 0x3656478788689866U, 0x87797a5636564454U,
  0x98aa8a97a9798a78U, 0x857586a8aa889a9aU, 0x8a9698a979995945U, 0xaaaabaabbacacc9bU,
  0x6787686a999899a7U, 0x4947454344667478U, 0x5424548495988a87U, 0x5996673554667675U,
  0xaab98b8989799968U, 0x57b68abbbb9abb89U, 0xbcaba777b68a6845U, 0xbbbaa8bbccdcbbadU,
  0x99489889a9856587U, 0x5757684793468366U, 0x3366447678989697U, 0x9975584844438866U,
  0x99889a8876776699U, 0x97899999897aaa8bU, 0xbabb975688877745U, 0xbbbb77b8a9acbbbaU,
  0x8686a77a86566585U, 0x7758773478573544U, 0x6338768659a89785U, 0x9699585963567867U,
  0x89a76a6875569676U, 0x939787aa9aa8a99bU, 0xbbbbbbaa89568a44U, 0x889b7a9999a7b9c9U,
  0x8777a88aa6789597U, 0x74574464695574a8U, 0x6835659578a87566U, 0x9978697686655865U,
  0x6777785854666796U, 0x97a788ba9aab77abU, 0xbc99bcac6b768967U, 0x8577aa786998b9a9U,
  0x6998897999856475U, 0x337736a578749778U, 0x5565986597782321U, 0x5998786578668579U,
  0x7785845967476885U, 0x7788a768b88a865aU, 0xaba9ecbd8b469989U, 0x868888b8b8ab8b9aU,
  0x6577976857655775U, 0x6133357854675553U, 0x5466595677663522U, 0x9988794737669687U,
  0x6895768958465686U, 0x866787776679869aU, 0xebcddecc6b548896U, 0xa5873679a9c99ac9U,
  0x5565635753234334U, 0x7666695896857586U, 0x59557679ab698577U, 0x6698675684466574U,
  0x5776668758647687U, 0x4778887669763686U, 0xccdeddcd7a457787U, 0x67553478a8aaabdcU,
  0x7557a39a75774356U, 0x835699476789a769U, 0x558583a7aa877889U, 0x6787699879577855U,
  0x8896a98787843674U, 0x6868788864433587U, 0xbbdadc9ca9996775U, 0x96894655779acbabU,
  0x5385989b69444368U, 0x9388886888686737U, 0x5669988a9956987aU, 0x7965987866448976U,
  0x5588889a84774574U, 0x7986446744753585U, 0xcbbbbbabb9788987U, 0x88658845678889caU,
  0x7389997879465356U, 0x9787988aa9997734U, 0x6987a98876697686U, 0x9999877796468889U,
  0x7876a98a65845588U, 0x3966555859855865U, 0xaaaaa9b999699856U, 0x37555425433386bcU,
  0x75679a99a7879967U, 0x8678988888978733U, 0x7986977766896885U, 0x6798769799687999U,
  0x7566a79948767583U, 0x7773664747358467U, 0xa7aabbca7b998848U, 0x5485564754565598U,
  0x67a6a87988898776U, 0x79a88889899a6a46U, 0x97787677767888a6U, 0x756658889979b79bU,
  0x8576779969475676U, 0x4757633363355635U, 0x778897aaaa978874U, 0x67877836385796aaU,
  0x8577899979aa7985U, 0x8988999a99875777U, 0x6768843656774589U, 0x55677798789899baU,
  0x866867cba9467587U, 0x4445735556694745U, 0x8873a7a979884865U, 0x694746478887668aU,
  0x654757678a9a6788U, 0x968a77aaa7556a79U, 0x67465555557764a4U, 0x57969788a789a9a9U,
  0x698768b989597865U, 0x3636466453746864U, 0x9a55a99baa8a4943U, 0xaa76698556868679U,
  0x8975886889ba7aabU, 0x78798aab9778789aU, 0x3833857555576653U, 0x46867a787aaa98abU,
  0x5587a7a967878777U, 0x4333545763545685U, 0x8777989aa79a7737U, 0x8a89958765a99856U,
  0x7996a9a7b99a5686U, 0x56a8999a77977889U, 0x4843547544357674U, 0x66858987a8ab899aU,
  0x5765779578747778U, 0x3232543347344554U, 0x99596998a9875954U, 0x7878556888a79968U,
  0x8889a77aab7886a8U, 0x6344897656766a89U, 0x3735635763238758U, 0x657498a898aa9b59U,
  0x65645454568657a7U, 0x4322337624623564U, 0x9556779a9b587845U, 0x5878a89868a98977U,
  0xb98997a8b9995997U, 0x7375586666886668U, 0x4664364523738833U, 0x33749679a9b9aa67U,
  0x3476754657546897U, 0x3532447623333567U, 0x856866a9aba88865U, 0x8988a8895789a869U,
  0xb79a777aba778785U, 0x9669466545649998U, 0x5543132334779765U, 0x4373a698a9b86b74U,
  0x3352336768785756U, 0x6252656433232246U, 0x657588999a888a65U, 0x998969a657a77898U,
  0xba7a89ba89878457U, 0x858b68996868a597U, 0x4344122235486646U, 0x3563aa6ab7897884U,
  0x5434347466756566U, 0x5757446454344445U, 0x3666949879785767U, 0x7656477356356646U,
  0x6776978a57663657U, 0x8458776988467699U, 0x3625332273536589U, 0x6575996895867777U,
  0x6342435467689589U, 0x887867aa66365644U, 0x366567a8888966a8U, 0x9865845588494454U,
  0x659857864846756aU, 0x8459768844746677U, 0x5334232266358897U, 0x7573897884548766U,
  0x3443647698578888U, 0x5836578767878865U, 0x2656979aa88a9778U, 0x8787675754855658U,
  0xa79b795379887867U, 0xa6a9a97866975966U, 0x444302306544786aU, 0x5643a75656437649U,
  0x4424337648557776U, 0x5767368563367536U, 0x4573665a95b98858U, 0x6a68688445566654U,
  0x989a96588697baa7U, 0xaa8aa7aaaa798868U, 0x53443423424563a8U, 0x3386b86a89778886U,
  0x25255474885667a7U, 0x8489784543665343U, 0x58a8a6888aac7757U, 0x9a9a98567857968aU,
  0x6996bb9a7999868bU, 0xab888a9b9ba79863U, 0x4634441375339896U, 0x46a9aa9a59856888U,
  0x5334428368576897U, 0x4666656734735632U, 0x5887a7879b793554U, 0x9a7a6834876789b9U,
  0x9ac9ccbc9a9b8999U, 0x7a8888ba89869a78U, 0x3743233252227587U, 0x7688a99a67658877U,
  0x5225334456577867U, 0x5598336457465624U, 0x47979a87a9793433U, 0x889a898798979ba9U,
  0x8698bcac989a8898U, 0xa79a995546874797U, 0x6936433253526478U, 0x4689b8a96a75a79aU,
  0x3354444574479457U, 0x5384657664777333U, 0x979d7a77a8744743U, 0xaa6844547a998a78U,
  0x87bbac6b6675769bU, 0x8798377356775896U, 0x6623355436646589U, 0x7779abaa87498637U,
  0x2363243368857567U, 0x8774696786886823U, 0xb7ab8a849b576686U, 0x6837433766a69878U,
  0xabaaac8b629499a9U, 0x86794854885698b8U, 0x4533746342766889U, 0x977a989788544464U,
  0x6445663574969677U, 0x9966545955599648U, 0xb89a69858a6699a9U, 0x4433543253726573U,
  0x9ab9a95634856877U, 0x87466663645465a9U, 0x692355444256968aU, 0x8885889676855575U,
  0x5383573743688486U, 0x8489967487464558U, 0x6786c78a898a9867U, 0x6487667635335546U,
  0x9a978a6785776563U, 0x6748433377488398U, 0x6734885585799999U, 0x6755765855867655U,
  0x7786764537847686U, 0x6588898677584788U, 0x3554879b6878a757U, 0x3375768746554265U,
  0xa789984984577434U, 0x6937542353556499U, 0x6674555686658aa9U, 0x5534747878988a88U,
  0x4865676644485666U, 0x74889a779a865778U, 0x774477664876b979U, 0x6667446746337387U,
  0x7886666873466554U, 0x6866474575767786U, 0xb7a8673876787998U, 0x7463457877877787U,
  0x346654675664975aU, 0x6466896689a94545U, 0x555767868689b879U, 0x4775856848332234U,
  0x6889875534658658U, 0x76a97654662533b6U, 0x89bb885858678547U, 0x64758779966a98a9U,
  0x7485758968668796U, 0x369555769a9b7848U, 0x6897495387677746U, 0x4453879899886576U,
  0x7687995667457468U, 0x44a6966867466564U, 0xa8a9a87a86783624U, 0x767676a8789a8878U,
  0x8799766766867869U, 0x8a8a8997b9bba767U, 0x97975a5569766886U, 0x34748775b98a7465U,
  0x4664983634667365U, 0x7596686477636744U, 0x798aa87986485335U, 0x4467778866ba9799U,
  0x9496758598748968U, 0x6976a877898b8a86U, 0x98a7678886686888U, 0x35868888a8685799U,
  0x443296575686757aU, 0x4264776955436763U, 0x8889988885673643U, 0x8889767895699987U,
  0x9675877985758666U, 0x7687978789989886U, 0x7a65767776989968U, 0x889598878b78a866U,
  0x4597764577779889U, 0x4378776656344442U, 0x7578788584553643U, 0xa945554384686545U,
  0x9795677855857959U, 0x6746a5aa88566686U, 0x9998a84887676797U, 0x345464a58c778a88U,
  0x4488645635737337U, 0x5734787654773532U, 0x8873979765548887U, 0x7788665487a8a855U,
  0x9b7b556877857987U, 0x445387a88a6a84a8U, 0x59857a879a77a989U, 0x5467346479687795U,
  0x3556334458854858U, 0x2742343444454436U, 0x7654945955347696U, 0xbb9a556776976687U,
  0xb97a758876774665U, 0x8966897aba8aa888U, 0x4443767789a9a99aU, 0x3726634774743744U,
  0x5859764656547489U, 0x3745653474465778U, 0x6476746767567896U, 0x98ab588664676625U,
  0xcabb766877646743U, 0x889989abaaabbb7aU, 0x75546568889a9b9aU, 0x4345445463773555U,
  0x7734447353322263U, 0x4523466755544465U, 0x4376749966487699U, 0xaa8b97685a497523U,
  0xabcd888995878767U, 0x6a7a798b8bb99aa9U, 0x547477965899aaaaU, 0x3342368399976734U,
  0x6844346753123376U, 0x4553767475994789U, 0x2554669656464565U, 0x897b69a857544655U,
  0xbb8b696865775576U, 0x8878889aaa9798c9U, 0x532334958aaa9bacU, 0x5353758699575744U,
  0x6776767845335536U, 0x3794775777b88957U, 0x5435539987367348U, 0x9999aa9935686444U,
  0x9a78699796877786U, 0x79a987ba7995a7abU, 0x66536788a7aa9ab9U, 0x5637668779474346U,
